tation
ต
seiner
dinner
asp
ativ@@
ems
abler
meter
illion
zeitiger
genauigkeit
schicken
schränken
vertrieb@@
drücke
linu@@
think
leidenschaft
artificial
gesetzlichen
missbrauch
mming
reinigung
strafe
etus
vorherigen
passiert
genab@@
sto
discussing
irgendeine
impres@@
gei@@
j.
presenting
ondly
fen
predic@@
obstac@@
definitions
preise
überzeugung
berge
rough
enta
beherr@@
112
syst@@
erste
dak
zukommt
dach@@
sement
ず
repeat@@
sser
ausgestatteten
völlig
rägern
votre
interne
üstet
deskt@@
注@@
distant
ca@@
kurz@@
mittler@@
refurbished
archae@@
königreich
ausgangspunkt
atisierung
shar@@
schauspiel@@
ections
aturen
kollektion
yers
arbeitnehmern
höchst@@
asse
widmet
law
installation
ira
로@@
disc@@
gesetze
fünf@@
supervision
đ@@
isa
weap@@
seinen
gemeinsamen
steigen
zte
mike
industri
nuclear
fying
binnen@@
anischen
ts@@
club@@
mitunter
justification
sli@@
topic
proposing
manually
unger@@
pas
verkehrs@@
considerations
gewinne
auswärtige
weaknesses
об@@
zero
dur@@
appe
vel@@
weigh@@
arbeitsgruppe
free@@
returns
marie
acquire
rescu@@
prakti@@
disappointed
easing
oh@@
conscious
peripher@@
ג@@
zeitalter
tracking
vernünf@@
sag@@
zeile
children
zentrum
sicherungs@@
consum@@
geräumige
imag@@
lücke
kritik
anerkannte
rig@@
first-@@
ล@@
walk
modifications
1986
zulässig
reservations
lieben
는
council
ras@@
erfol@@
ziem@@
leicht@@
ध
ungeachtet
ution
haushalt
¡
austausch
contex@@
fridge
all@@
natürlich
step
veröffentlich@@
fort@@
oran@@
ulative
venezu@@
so@@
fizierung
passion@@
dienstes
rently
ville
victims
article
disability
reich@@
account
modelle
tech
lick
umfassend
beh@@
begrüße
etzt
morning
gegenden
ecu
critici@@
äufe
getötet
dium
perfekte
absence
signatures
opponents
ettering
mosp@@
civil
relative
pv@@
gendes
berechtigt
coach
satisfaction
seef@@
irgendwo
都
寺@@
ér@@
churches
∈
social
idity
sierung
liesslich
ownership
contradi@@
на
€
tär
shipment
osce
franc@@
emp@@
corpor@@
entwickelte
flexibility
ameni@@
ía
tiefen
avoiding
vegas
stitu@@
verweigern
hosts
stolz
帝@@
lichkeiten
este
sätze
gat@@
dn@@
beschäftigen
tro@@
auff@@
fortable
schulen
älern
avo@@
faden
meetings
experiences
ј@@
strategic
fenst@@
lish
risiken
ieder@@
tät@@
investoren
viewing
紧@@
creatures
fields
套@@
void
ֲ@@
experten@@
cc
wind
manchen
unterkunft
anding
summe
س@@
grenzen
beu@@
initiatives
laman@@
opening
erklären
dischar@@
cei@@
ң
mic
e
scap@@
zunehmende
dalai
coff@@
maß@@
declar@@
ext
offences
verträgen
ehold
überzeugt
performing
jenen
befreiung
endsten
months
occasion
igem
the-@@
table
che
22
thermal
anleitung
commands
auslieferung
wörter
ütte
begehen
veran@@
aph@@
undertakings
tangible
gegen
explained
pixels
produced
64
équi@@
italienischen
unabhängige
franzo@@
management@@
wohnungen
lehne
very
verständnis
diesbezüglichen
cone
likationen
study
anderem
程@@
knapp
enjoyment
flower
barroso
vil@@
convinc@@
bli@@
deutsche
hen
band
koordin@@
casus
füll@@
21.@@
르@@
gesetz@@
ot@@
ide@@
shoulder
sent
ports
modest
erfüllung
erner
verstehe
lierungen
tout
subjek@@
aufzug
rf@@
stockholm
eits@@
genf
service
seo
sili@@
知
show
abhängen
served
ps
reise@@
reser@@
recommendations
alexand@@
lounge
vice
graphic
herkunfts@@
statisti@@
lärm@@
ltd
suici@@
ungs-
ausgewäh@@
ป
valu
dustrie
eu
berech@@
debating
1995
8-@@
pau@@
ungefähr
abund@@
gewählte
endorse
restaurants
itte
ändert
vertei@@
ausführliche
counter@@
eingeschränkt
viously
frankfur@@
68
bin@@
buchungs@@
ski@@
sunshine
nötigen
struggle
rug@@
riebene
colors
queries
ological
ब@@
部@@
freundlich
verbundenen
eigentliche
baren
comments
upcoming
discipline
nachvoll@@
may
suggests
echtes
restricted
ด
kopenhagen
rabatt
über
schauen
bonn
stammen
sämtlicher
sch
tode
罪
preparing
weren
tis
ferenz
schlicht
성@@
90@@
fahrzeu@@
alltag
itim@@
aca
shof
luft@@
apri@@
bury
wett@@
enswerte
jahrest@@
grundsätze
precious
stärker
plants
wear
basierten
zusammenfassung
rieben
gestri@@
ጽ
statistics
ehr@@
zuständig
rin@@
r
ж@@
feu@@
neuer@@
го
architektur
ራ
proof@@
leiste
äußern
inland
wirtschaftswachstum
berichte
contextual
7,@@
district
buildings
ors
oli@@
dollars
genau
fact
stop@@
ersatz
alli@@
stitutes
folter
märkte
来@@
slau@@
aufgeteilt
arische
felder
ktur@@
ter@@
ires
ilet
machten
occurring
given
ane
persecution
trainer
estock
factors
钱@@
result@@
一
ɒ
höre
euer@@
rum@@
repeat
kosten@@
endung
malerischen
空
är@@
trial
defen@@
decisions
consist
天@@
ollah
од
材
圆@@
angeles
atis@@
umzusetzen
owed
of
signed
movie
sozi@@
deten
ücke
tei
izing
fußgänger@@
ừ@@
schuldig
jeden
hochschul@@
inter-@@
nen
organisierten
hidden
buil@@
days
remark
resum@@
dame
common
markiert
ter-@@
eck-@@
password
止@@
級
verhandlungen
aussagen
consider
gratis
identität
motor@@
schließlich
humanitären
euren
schiffe
civi
ünd@@
oa
植@@
engineering
partnerschafts@@
erous
deinen
leger
ב
ór@@
estelle
140
bile
pin
langfristig
raft@@
extrem@@
spre@@
ausnahmen
stimmt
effekte
beck
ء
sto@@
vertretung
eisenbahn
leipzig
舫@@
stellern
防@@
schaffung
musik@@
mysteri@@
stephen
need
vorrangig
้
gia
locate
rund@@
agu@@
kulturellen
enseite
dance
cla@@
path
temperature
beliebige
kest@@
vordergrund
häufigsten
proch@@
dürften
aufwand
steuerung
säulen
soli@@
ラ@@
shang@@
beantwortung
timedi@@
iev@@
ሰ@@
commodities
aufzubauen
lässigkeit
uphold
chambre
stro
kompetenzen
balanced
adam
ektar
zogen
feststellung
thought
gefän@@
上@@
spent
romanian
adresse
observation
cked
￼
terrain
chtest
becomes
xp
gewinner
abgeschlossen
activ@@
ihnen
stunden-@@
server
i-@@
1996
luxemburg
ack@@
ingly
tain
höchster
istry
delight
decision
mill
encia
dritten
o@@
regelmäßigen
verfolgen
eh@@
quark@@
eingetragen
ausbeutung
brücke
anspruchs@@
tiz@@
-l@@
mal@@
nahrungs@@
lebensqualität
part
beruf
xim@@
promptly
heber@@
energe@@
shock
giore
diagnose
柴@@
rts
キ@@
unterst@@
h
test@@
夹@@
熊@@
conditioning
erhält
ece
ﬁ
lungen
awarded
õ
ludwig
feri
afford
portugiesische
ق
prävention
keit
erschein@@
unvermei@@
electron@@
weal@@
umfangreiches
gespräche
vorgelegt
destro@@
nicht-@@
assung
undern
continu
simpler
getau@@
fri@@
läufi@@
exported
zäh@@
美@@
п
visas
entsprechender
understandable
lichen

駅
erbaut
haltung
allgemeiner
peror
ches
pillars
mittel
accommodation
proper@@
ussion
nesty
einseitig
kommentar
positions
帯@@
socialist
kolumbien
prer@@
future
ausgleich@@
laundry
ief@@
erwachsen@@
φ
availability
entschädigung
echt
ah
veranstaltet
spectrum
invest
verbraucherschutz
anken
fizierte
wohnern
erfassung
verzö@@
looked
übertragen
ros@@
letz@@
ray
möglichen
dictator@@
weitergabe
uk
elten
pre-@@
in-@@
getra@@
件
continent
ars
郡
größen
moment
niedri@@
theorie
venice
ˈ@@
migranten
ateway
klär@@
dliche
mort@@
试
organizing
öl@@
faced
ye@@
aca@@
谷
zweitens
fizierungs@@
weiteres
teilnehmern
hes@@
anderer
resulted
insofern
verstoß
asset
shr@@
´
under
oom@@
aufnahme
terrorism
uries
speeds
gründung
collapse
1944
dein
herself
handle
häuser
hospital
händen
couple
bedingt
chinas
surv@@
undenen
alpine
married
kes@@
zione
üssel@@
iny
wichtigen
lieg@@
ateg@@
ይ@@
ই@@
stuck
ernity
vornehmen
essential
reine
proj@@
surplus
notification
dsl@@
everest
distribute
health@@
freiwilli@@
ausdrück@@
accommodate
ぐ@@
ötz@@
gelegenen
ingungen
units
ego
catho@@
zyklus
dresden
dead
skosten
schwarze
zunahme
performances
l@@
complic@@
respecting
azzo
emphasize
scenes
19.@@
sham@@
otic
camera
mit@@
tensions
港@@
instre@@
erforderlichen
ancen
urspr@@
+
ְ@@
abstimmung
円
repub@@
usin@@
homo@@
unterbreitet
jacent
ep@@
correct
much
al-@@
意@@
estimated
kooper@@
haltest@@
ongs
genu@@
ihood
problematisch
ђ@@
aya
respectively
whel@@
atics
establish
typische
porsche
5.00
überschw@@
mächtigen
gebrochen
thil@@
irrespective
lust
漫@@
digital@@
schein@@
dor
ฤ@@
longer
esis
prison
iken
appointing
jemanden
advisory
entschuldigen
eingestellt
館
val@@
expenditure
nights
br@@
etter@@
ge@@
র
konvention
neue
satlan@@
ন
überwacht
3,@@
endeav@@
w.
defense
latt
spaß
eir
exp@@
ring
gemeinschaften
ßen@@
cap
wirtschafts@@
wissenschaftlicher
alties
ť
applicable
werk@@
unvergesslichen
debat@@
wein
provides
investitions@@
deckung
symbol
wahlen
schol@@
dörfer
ueber
appell
看@@
exhibitors
reparatur
ว
eigenschaften
occasions
asian
flexible
geh@@
2.2
wischen
lady
setzte
ose
ungen@@
erleichterung
雄@@
adam@@
costa
69
verwaltungs@@
apple
mittelt
schule
stö@@
ehrgeizige
aktuell@@
rahmenbedingungen
eingerichteten
chtlin@@
closure
concern@@
mode
sperr@@
achen
َ@@
lö@@
statements
tow@@
forward
admire
aufnehmen
illing
problemen
accepting
taten
wünschen
ektor
hochzeits@@
sympath@@
europas
्
etric
atlantik
father
对
ρ@@
gestellten
luxus
seasonal
深@@
might
rind@@
setzten
frühstücks@@
incidents
rhine
luxurious
vertraut
த
ể
excess
celebration
х@@
transform@@
treff@@
taine
unglück@@
monit@@
erzeugt
dim@@
ganz@@
interessen@@
verteidigungs@@
utt@@
eicht
array
relatives
well
multip@@
lierten
dienst@@
eget@@
dign@@
versions
mäßige
報
limiting
terminals
veränderungen
flug
ी@@
associ@@
warm@@
ruhe
ito
2014
landwirtschafts@@
schüler
oly
zusammenhalt
maße
ermögli@@
responses
straßenverkehr
dentin
ländischen
fails
erklärt
worl@@
privat
iling
museen
по@@
online
stly
schätz@@
vertrieb
toward
environment@@
freitag
grounds
sharing
häufiger
bekräf@@
gebot@@
sci@@
olympus
innsbru@@
二
contractual
anre@@
.jpg
mirror
schlechter
harmonie
wb
strength
realität
s.@@
ually
ke@@
enen
qualities
etabliert
formulierung
wahrheit
i.e.
aufhalten
smart
eter
nämlich
leag@@
drehen
best@@
rut@@
armut
challenge
kontaktieren
color
port
õ@@
刚@@
begrün@@
enjoying
dienstleistung
acks
small-@@
notwendigkeit
vancou@@
iegen
gun
suit
skiing
thres@@
場
珠
licens@@
retail@@
genetic
jour
dly
prize
fossi
verschmutzung
übersetzungen
webe
ankündigung
absicht
verstärkte
1983
murder
use
-software
losen
höherer
庆@@
absolutely
cons@@
invited
unberühr@@
instance
gelieferten
intensity
across
schließen
cardiff
männer
amendo
direct
溥@@
itar
architek@@
sicherheit
whether
machte
aktion
pace
bevölk@@
adjustment
colours
expanding
tiv
sort
nutzungsbedingungen
fähiger
夢@@
‌
demands
ש@@
flan@@
riff
stored
sist@@
umph
1939
号
indon@@
gefäl@@
let
konzentri@@
unabhängi@@
denen
gente
spektak@@
verändert
scott
ollar
außergewöhnlich
confidenti@@
两@@
zigar@@
shipping
insbesondere
harv@@
schließ@@
sparen
ambiguous
buchst@@
constra@@
9.@@
agre@@
mean@@
häufig
write
ull@@
speziell
holt
vigil@@
bern@@
östlichen
ნ
spätestens
drawings
18-@@
ッ@@
120
storage
fixes
nachbar@@
moscow
sedatum
alm@@
double
fried
wirksamkeit
affair
enttäu@@
actors
ク@@
터
figure
ı@@
ales
kontinents
willi@@
sin@@
enemies
lond@@
sozusagen
油
blend
besitzer
haushalts@@
rely
meist
finest
priority
has@@
a@@
ъ@@
ebung
mayor
chemicals
zinsen
odiversity
forts@@
ischerweise
､
abandon
fül@@
tagungen
tibet@@
ử@@
id@@
apparent
bought
hause
dü@@
body
bon
finanz-
derog@@
ђ
defended
schrei
congratulations
secondly
gebäuden
grenzüberschreitenden
ady
vietnam@@
besagt
gebot
roman@@
erweitern
«
grass@@
maximale
い
gab@@
geschrieben
angrenz@@
kleiner
‼
witness
austria
drängt
usd
lands@@
gg@@
happening
became
forderte
ppen
upgrade
schatten@@
geared
comm@@
blicke
ennis
motorway
thoroughly
apo@@
http
innen
bloo@@
infrin@@
angekündigt
@
luck
lig
brown
gmo
posten
acc@@
ausgesch@@
pfli@@
resources
elimin@@
deemed
conflicts
yen
ätze
typ
dest@@
missed
allows
era
ode
einziger
unilateral
詩
ektion
foreh@@
islat@@
automatischen
鄂
olls
problematic
rechner
neo-@@
z.@@
halt@@
excellent
撮@@
automobile
selbe
specification
usern@@
row@@
ours
deutet
lung
encouragement
aufgaben
commitment
head
relatively
entscheidungs@@
rd
nam
呉@@
rupt
erschüt@@
vereinigung
援@@
cost@@
aven@@
roten
hinzu@@
ket
⌘
gekommen
franz
ments
begab
abul@@
klim@@
unterzeichnet
broad@@
irak@@
confron@@
inhaltlich
started
removal
wiesen
griff
spazier@@
bekistan
jahrzehnten
verliehen
konten
äch@@
hack@@
multilingual
isn
jeweiligen
zählen
futter@@
tler
elect
loss
ron
zell@@
part@@
familien@@
sought
autor
dancing
mals
begannen
generic
durchschnitt@@
denzen
jackson
update
avi
mündlichen
größeres
renten@@
liby@@
endete
ite
involvement
be
dauerhaften
palest@@
guard
ờ
功@@
rupted
stren@@
offset
schwein@@
gesundheit
ह@@
ces@@
orig@@
geringe
nt@@
euern
müt@@
gon
preservation
ik
ting
vorgeschlagen
hund
‰
zieht
path@@
join
verbunden
borg
feb
gewünschte
day
』
themes
priorität
php
rus@@
lateinamerika
emphasise
circles
columbia
database
mid@@
erklärungen
dis@@
split
europa
express
ect@@
heit@@
vorschlag
console
alisierungs@@
10th
400@@
گ@@
precautionary
motions
gate
kontrollieren
embly
ż
master@@
pedition
iwf
arrested
proper
wall@@
reh@@
administ@@
☏
peninsula
irgendwann
hosti@@
о@@
tatsächliche
货
maastricht
inci@@
constructed
symptoms
eg@@
ʦ
ordnungsgemäß
haush@@
senden
vertrags@@
abschließ@@
deutlichen
geklärt
خ@@
wit@@
steigt
clarified
mits
ய@@
moved
promis@@
zentrale
snow@@
put@@
fili
delay
arches
counter
zivil@@
angesichts
roc@@
ר@@
edited
übersicht
ko@@
hal@@
reproductive
beteiligt
seller
irregularities
clean
besten
sichtbar
einstimmig
consultants
gemis@@
zerstör@@
dor@@
mü@@
jüngste
gemeinschaft
ব@@
hilfen
dras@@
160
ativity
geneva
ag@@
werden
0.00
orientation
unterscheiden
amentos
deutscher
amounts
münzen
♫
undering
opposed
gni@@
dieser
economical
detri@@
politics
influential
章
ņ@@
favour@@
appropriations
1991
matching
skul@@
aparthotel
bzw@@
jac@@
ankara
shut
occa@@
ri
befes@@
herausforderung
ah@@
terminal
imper@@
ell@@
ļ@@
aged
techniken
fungen
woo@@
fratt@@
f.
berater
restrict
film
bat@@
藤@@
rebt
verläss@@
ère
airlines
chise
oten
exotic
derart
iraqi
newly
stadt
ne
zugriff
earliest
powder
anhal@@
nail
tent@@
arily
vielen
distinction
inv
ée
produzi@@
線
betrugs@@
signal
comparable
有@@
libya
do-@@
resul@@
gänzlich
klar
wellnessbereich
paradise
tier
besteh@@
überzeugen
meters
pr
tot
bewahren
beibehalten
rev@@
zeitung
196@@
emanden
maßstab
sing@@
minimum
tioned
bedro@@
hinsicht
ausgeliefert
agog@@
①
44
life@@
ku
black
vers
ʌ@@
wahre
reservation
tram
duzi@@
nit@@
experienced
immobilien
ic@@
螨
bone
mini@@
halben
georg
europeans
gap
º@@
alifor@@
question
troll@@
neuerungen
autonom@@
fügt
wifi
ist
conference
braucht
mehrwert
検@@
ې
terrassen
gulf
tube
bom@@
bessere
貌
sand
び@@
markets
card@@
raises
went
eper
回
peri@@
limitations
ressourcen
remember@@
küchen@@
istik
earch
indien
foster
ocop@@
asymm@@
o-@@
wochen@@
economic
lager
partnership
ĝ
ramblas
pod@@
benutzer@@
audience
befürwor@@
lässi@@
actor
colom@@
hetero@@
名
umsatz
tokyo
profitieren
digte
ر@@
election
疆@@
gefördert
bequ@@
steps
denn
rapidly
ologische
sel@@
pressure
hs
integrity
ms
takings
könnte
som
für
entr@@
owned
prevented
cript
李@@
exagger@@
ˆ
serklärung
ไ@@
bearbeitet
sinken
unequi@@
ỹ
kom
verdanken
gewin@@
葉@@
ständigkeit
date
jack@@
ceo
kritische
ecke
imbalances
ُ@@
lungs@@
atischen
bruttoin@@
signal@@
av@@
petersburg
fikation
re@@
architekten
informations
ps@@
venti@@
approach
internetzugang
wöchentlich
dazu
ily
生
sätz@@
kilometer
用@@
14
aufruf
kontra@@
nass@@
starkes
ram
usb-@@
historisch
seitdem
wirksame
tourist@@
emperor
positive
liikanen
unterstreicht
emotions
worried
donors
济@@
ized
您@@
entgegen@@
gew@@
captain
leng@@
geplante
元
ุ@@
intel@@
empty
196
eck@@
boden@@
größte
höch@@
lich-@@
behind
erinnern
regionalpolitik
计@@
dauer
ganzes
us@@
fax
enship
amor@@
job
realized
vod@@
tested
tourismus@@
reichende
surance
bein@@
his
slowen@@
wichtigsten
од@@
gallery
voraus
satisfac@@
poker@@
committee
facts
layout
م@@
mitte
durchschnitt
märkten
sse@@
columns
beitragen
genic
tak@@
referred
amp
volle
voc@@
stellung
accessible
dinge
foreigners
blüh@@
stechnologien
sightseeing
cool@@
male
ords
appeal
rob@@
unten
50
fühlt
nürn@@
以
überwiegend
until
anger
当@@
absor@@
ay
math
sydney
wohlstand
ausgewählten
emost
-sti@@
mär@@
dei@@
bestens
möbli@@
silber@@
sir
silver@@
ear
produzenten
ausfahrt
hase
developments
age
ridicul@@
る
edy
bemühen
impressive
ん@@
え@@
prot@@
res@@
antly
asked
becom@@
rix
vill@@
员@@
sprechen
ordin@@
zeu@@
finanzkrise
holoc@@
seed
ambience
slowly
dres@@
rangi@@
qualitäts@@
leiten
astern
obama
1985
eten@@
complicated
skills
hus@@
ausgeführt
offer
ühen
91
verständ@@
entei@@
incentive
entstanden
от
bei@@
ア
ouses
kostenfrei
konkre@@
å
leben@@
smu@@
mittelme@@
王
ett
я
purchasing
artigen
begrenzt
beschluss@@
세@@
purchased
constitute
obj
cust@@
niti@@
caucasus
abgelehnt
anhänger
amer
engage
ֶ@@
pipe
cup
gements
excep@@
ador
ausgezeichnet
engagiert
edes@@
perform@@
african
度@@
begin
ehrs@@
州@@
versammlung
custom
toleranz
presents
behinder@@
ande
mai
seiten
olies
19@@
页@@
ҡ@@
vereinbarungen
bugtraq

dition
diskussion
gave
v
142
los
lob@@
yk@@
wag@@
近
zusätzlich
ringen
geheimnis
eingerichtet
seville
independ@@
definite
adequately
beru@@
120@@
keep
verstärken
zugs@@
null@@
.the
ি
thi@@
milliarde
achtet
edit
left-@@
fertigung
reputation
replacing
copy@@
lament@@
ansprüche
containers
oli
getrennt
tätig
democratic
verfügt
王@@
‟
stance
bedauer@@
depth
outdoor
湾
eec
auc@@
es.@@
utern
urop
twenty-@@
zus@@
volkes
ubun@@
hoch@@
ought
pc
willi
kleidung
karten@@
イ@@
rab@@
ץ
<unk>
verursachen
latter
dr@@
七@@
sch@@
healthy
marquis
managers
ಾ
15.00
wesent@@
gemeinsam
nut@@
assumption
likes
で
special
practically
dien
edt
schn@@
inau@@
distribut@@
betrag
dau@@
bands
事@@
↓
vieler
empfangen
entschlossen
innenstadt
west
konferenz
gathered
pist@@
elegante
gesetzgebungs@@
industrielle
guaranteed
beseitigt
chtes
oberste
器@@
delle
zuständigen
schuldigen
geopoli@@
richtigkeit
lago
partially
owski
disabilities
、
ori
peace
feld
erly
büh@@
california
po@@
gas@@
bitte
switzerland
fü
holung
reiterate
9th
rande
³
wenig
vp
ders
einstieg
müll@@
bequeme
paper
nutzbar
stocks
crimin@@
medium
180
folder
chancengleichheit
destruc@@
placing
flat@@
deployed
äußerungen
-tv
bedingte
convers@@
gespeichert
peking
ta@@
estro
reiz@@
folgen
simp@@
alog
ト@@
ை
determine
äres
reibung
צ
considerable
junge
ort
prefer
慣@@
peop@@
dub@@
konjunktur@@
gerichtshof
咬@@
element@@
da@@
reichtum
autoren
atur@@
足
schlimm@@
stuttgart
gal@@
itted
amsterdam
domestic
madam
separ@@
loose
planning
prises
pft
konflikte
inder@@
dat@@
lieren
struction
ühren
ا@@
ir
物
sligh@@
can
companies
herrliche
ses@@
station@@
riesen@@
spru@@
elimination
verbindungs@@
gelernt
xe
stub@@
strategy
unterstütze
scan@@
sized
successful
gebir@@
weiterentwickelt
arabischen
thilfe
mt@@
investitionsbank
urs
や
insula
verhindert
ölle
negative
ten
spirit
angle
both
leistungen
ов
erei
diskussionen
ver@@
dise@@
marktes
touren
vert@@
men@@
pazi@@
at-@@
anreg@@
reading
efully
mitarbeitern
übersetzung
ï
contribute
geltungsbereich
ov
load
attention
meps
rez
vorzustellen
ink@@
ausgewogene
aktu
zuführen
enti
intro@@
schöner
amended
プ@@
ferienhaus
krä@@
transactions
allianz
收@@
thur
ernsthaft
eingehalten
identified
wendung
sozialen
democracy
eigentümer
abteilung
inquiry
elite
mann
designs
thail@@
sed@@
typischen
portal
barely
lished
ausbildungs@@
zed@@
prep@@
kennen
03.@@
heu@@
betting
你@@
maritime
mountain
sebastian
branch
cons
verse
schle@@
intuitive
¼
luxembourg
r.@@
salaries
ert
amtierende
curren@@
below
review
beigetragen
verglichen
ausgaben
fraktionen
dom@@
anwender
behaupten
one@@
temperaturen
wirken
michael
35
uls@@
pione@@
eived
stark@@
niture
er
größer
atz
dokument@@
ِ@@
substantial
form
fication
gage
host@@
offenen
moderni@@
ancest@@
received
才@@
feat@@
郎
television
inhalts@@
20-@@
low-@@
werner
页
veröffentlichungen
preventive
context
feh
zusehen
eit
technically
ruf@@
寺
lautet
ð
stru@@
kommunik@@
ähri@@
separate
strengths
bevorstehenden
igte
provin@@
icy@@
swimming@@
labelling
kinnock
gebil@@
cherung
focus
nahm@@
vel-@@
ausgerüstet
ini
没@@
ßes
er-@@
artists
depic@@
complex
hielten
icals
heirat@@
fuerteventura
candidates
tired
tür
tier@@
februar
consolidated
agreement
achieving
ideologie
verhaltens@@
positioning
modification
always
shel@@
characterized
kra@@
attempted
gence
burg@@
hormon@@
kte
magne@@
dritter
same
elings
大@@
erns@@
neighbo@@
attitudes
bezug@@
camping
app
stunning
sames
unmittelbarer
ägypten
kann
verwirrung
済
members
試@@
sponsor@@
best
濟@@
offline
sibly
kinder@@
tieren
stät@@
beliebt
management
interpreted
researchers
believe
ehrlich
ergi@@
stets
raschen
phasen
ani
ት
ウ@@
clients
facilit@@
geschäftsordnung
omin@@
nam@@
stairs
450
cab@@
lasse
1,5
however
hall@@
verbrauchern
ansprechen
due
züglich
añ@@
桃@@
beraten
ame
asylum
terte
möglichst
bestellen
forget
ärkt
schriftlich
beitritt
kaiser
stringent
multinational
follow
wind@@
portfolio
sprün@@
195@@
ດ@@
kamer@@
sounds
ihn
lli@@
attract
unexpected
wellen
陳@@
车@@
avail@@
boat
feldern
以@@
rocks
aims
sens
eurocopter
ლ@@
nummer
框
implement@@
motoren
dieselben
ehren@@
combined
spectac@@
minds
manoeu@@
ט
gefallen
celeb
education
琢
manchmal
dramatically
often
ັ@@
lio
kontakte
appropri@@
adapt
fs
kapazität
gesicht@@
to
divisions
straß@@
spark
meinungsäußerung
programme
工@@
shoe
gemacht
dbar
aussch@@
lab
fern
niemand
criticisms
g-@@
how
orientierten
frei@@
geleitet
naturschutz@@
generating
unabhängigen
vergü@@
ั
言@@
itt@@
ī@@
exac@@
whol@@
att@@
efa
frames
bezogenen
holes
づ@@
distri@@
settlement
öch@@
der@@
perfec@@
sake
festung
schemes
seg@@
tatsächlichen
facing
transnational
phil@@
ovi@@
wing@@
sieg
ater@@
jemals
mistakes
sql-@@
simbabwe
wicklung
kämpf@@
unabhängig
baby@@
estland
bia
danish
vorteilen
schwer
mün@@
garanti
kommerzi@@
investor
lä@@
ungleichheit
schied@@
grants
aspekte
95
finanzdienstleistungen
incomes
zuständige
och@@
seminar
schalter
registration
configure
claim
tion
pack
mr@@
eas
а@@
belongs
driven
globalization
formen
shower
firmen@@
towards
benannt
freie
צ@@
indicate
lässlich
governed
auslösen
enhaus
valencia
isches
enten
lying
vorsitzenden
qui
babwe
moral
liegen
clin@@
sichert
schwei@@
abend
towels
esa
jederzeit
temple
tiefe
verl@@
oming
lig@@
half
belgian
加@@
communications
train
safer
erheben
vii
ausgesetzt
accept
burma
arbit@@
ophi@@
abge@@
spi@@
privacy
enhäuser
6,@@
ov@@
koch@@
atin
intern
enjoys
gnisse
parl@@
nür@@
author@@
enlargement
宗
blizz@@
锋@@
editor
cr
serious
ums
kanische
wohin
reichlich
36
sements
calculated
airport
verteilen
味@@
kontroll@@
ance
überblick
willingness
pfad
unterbro@@
neuer
년
wart
flash
skin
weltweit
savings
屏@@
entliche
unterscheidet
roler
falschen
geworden
bedürfnisse
hoher
www.@@
push
considering
erlebnis
kü
9-@@
certific@@
済@@
ñ@@
lets
staats@@
integ@@
schneiden
tief
vierung
tes@@
agencies
eating
ermöglicht
र
viel@@
mehrheit
ynn
antwort
less
呆@@
fl@@
nep@@
hinzugefügt
気
abzu@@
bon@@
ș@@
bord
mittag
き
ökonom@@
tit@@
periods
charak@@
gegenüber
16-@@
glo@@
pon@@
partement
aufeinander
erstellen
ok@@
accompanying
believ@@
located
-system
kontrolliert
einzuführen
tabelle
loy@@
玉@@
incor@@
gemütlich
verläuft
garage
erige
immerhin
trends
examining
ings
exposed
et
harbour
rahmenprogramm
sympathy
geradezu
non-@@
plätz@@
führungs@@
authentic@@
bö@@
äder
adi
forests
galleries
informative
gaulle
assen@@
exemp@@
worth@@
alth
vised
wenigsten
suchen
hans@@
unüber@@
eing
virtu@@
iv
3-@@
genous
tipps
ethnischen
geschäftsbedingungen
equivalent
crops
konfrontiert
finan@@
υ@@
hingegen
tbar
envis@@
ßer@@
masch@@
errichtung
advanced
wieder@@
läßt
ast@@
polnischen
mly
patch
nt
demonstrate
downtown
short
此@@
ū@@
descri@@
konsequ@@
lift
gültige
billi
nachfolger
moratorium
maßgeb@@
stische
kmu
termini
banks
defend
beings
considered
ǵ
distan@@
versch@@
power
impris@@
begrüß@@
sir@@
college
brauch@@
äußerst
reported
viera
unterliegt
ettes
millions
westen
proposes
festyle
bewegen
ʲ
multilateral
preserve
ґ
care@@
realis@@
pertoire
berichterstattung
march
aufnahme@@
withdraw@@
ozean
mel@@
london
leichter
sculp@@
degree
蒋@@
dringlich
fien
bewahrt
religious
wides@@
鈴
infrastructures
ania
in
70@@
alert
ة
quest
judicial
toms
hundert
identification
resort
äußerung
diskutiert
inhaber
tell
fortgeschritt@@
bereich
lists
anci
zn@@
buffet
monat@@
terung
gewählten
anders
革@@
äte
schweren
la
statten
paul
headquarters
präsident@@
verbrechen
dreht
warrant
medi
pear@@
langzeit@@
wartung
pp
buddh@@
の@@
cutting
mon
sichere
आ@@
angegriffen
fli
kong
konfigur@@
sagten
stone
広
ausrichtung
terrorist
skraft
й
anto
phen
regionen
schulungen
herzegowina
slopes
biegen
bt
presum@@
yahoo
solven@@
liefer@@
bekann@@
factory
schlacht@@
振@@
德@@
dum
stoffen
etw@@
ʒ@@
demonstri@@
verfügen
competing
드
kompati@@
computer@@
sprech@@
ostsee
highlights
grundlagen
kombin@@
haut
zweifellos
aden
welfare
verlor@@
höhen@@
kuba
cols
gesundheitswesen
debate
ľ
includes
inserted
<bos>
glaubt
grace
zielt
steigenden
verur@@
ic
fremden
geleistete
stung
woods
picturesque
max
gefähr@@
acies
ath@@
disastro@@
hän@@
aktivi@@
assets
glaub@@
kommend
pm
tackling
zugute
prozesse
eigent@@
begriffen
velop
anzahl
rasch
crucial
spec@@
deliveries
urgency
cans
il
intermedi@@
offener
genannt
フ@@
veranstaltung
om@@
impression
demonstrieren
hindu@@
andinavi@@
waters
el
leistungs@@
bundes@@
jähri@@
öffentlichen
ening
nehme
perc@@
concer@@
threats
cafes
front@@
eth@@
書
leitet
bekannte
pub@@
week
iraq
tag@@
instruc@@
peters@@
eux
poses
ausreichend
not@@
meine
bound@@
jud@@
whi@@
ass@@
甜@@
worked
grundstück
zeiten
explicitly
muss
lou@@
久@@
sicherung
兵@@
mögliche
५
nev@@
enfor@@
arbeitsweise
persönlich
attended
ti@@
necessi@@
finden
roh
umm@@
laga
pflich@@
know
alism
mature
loser
erhöht
newest
full
bundesrepublik
scenery
consul@@
grand
drag
ement@@
ensystem
5,000
oslo
benö@@
schaften
mp3
egt
gmbh
fuß@@
woh@@
anim@@
acade@@
organisieren
alto
vie@@
voll
ekt@@
leider
abilities
weiß
ützen
ley
verschul@@
ص
verwei@@
reci@@
überdenken
serviceleistungen
entre@@
13@@
blocking
alarm@@
ř@@
sonni@@
ⅱ
pag@@
400
py@@
resultat
schwere
柔@@
funktion
moder@@
europäer
weiterentwicklung
con
nobyl
cular
bewähr@@
passi@@
weis@@
knowledge
melden
darf
zak@@
anning
vom
konstruktive
hyper@@
ead
toren
contrary
gesetzes
britain
potenzial
older
expects
kenntnis
ญ@@
ک@@
frü@@
tail
sieren
uan
yp@@
lash
geringeren
iz@@
fragt
win
gab
emphas@@
tiver
gültigen
constitution
eger
sd@@
beda@@
sweet
cent@@
dow
습@@
offene
kaffe@@
sibili
entri@@
1976
sagte
browser
begins
rain@@
besatzung
richtungen
ภ@@
unen
maus@@
vieh@@
documentary
outset
tickets
chinese
tyrol
effektive
ra@@
spending
exhibit@@
dg
г
para
makes
tika
got
verbraucher@@
amen@@
menschen
passive
愛@@
terrorists
alters@@
accommod@@
anya
lis@@
1992
donnerstag
begründet
ungsh@@
wesens
原
indisp@@
partial
frequency
paint@@
performance
officials
auswahl@@
ἔ@@
einig@@
digkeit
füllt
ön@@
grati@@
gestaltet
desk
贱@@
cham@@
still@@
99
jüdischen
visi@@
purely
ras
auslands@@
billions
ausländische
bekommen
verwende
idents
lun@@
ce-@@
percent@@
burning
codi@@
veranlas@@
unsch
presti@@
que
pedestri@@
setzungen
application
funding
strä
cities
awar@@
lös@@
establishing
jahrhunderte
abonn@@
organic
aufgegeben
protein
economy
hl
bauten
elabor@@
far
gewisse
einmaligen
develop@@
investments
イ
发@@
beziehen
spir@@
olen
bereitet
ቀ@@
institutions
则@@
wan
weih@@
kö@@
unab@@
rachten
dri
racing
äl@@
ti
niedrigen
tn@@
『
beweist
convince
gläubi@@
aw
suiten
tm
berufliche
fertigte
historischen
zahl@@
respective
氏
iran@@
ymn@@
aufzunehmen
calculation
september
alem
ks@@
itäten
bed
surely
besucht
selection
restrictive
claiming
tac
أ
downloaded
zern
muslim
oni@@
erkannt
kell@@
ad
は@@
internation@@
opfern
unt@@
刀
working
choices
studios
king.com
engaged
modul@@
urlaubs@@
metro
widerspruch
indirectly
alles
berlusconi
quota
梅@@
agno@@
emin@@
-@@
extrem
kom@@
allisoli@@
unterstützte
tage@@
literary
äumt
doz@@
like
hist@@
ala
thick@@
suited
ess@@
raw
‐
checked
feiern
jing
bekannten
look
geplan@@
integr@@
eingebettet
jenem
选@@
mic@@
н
applic@@
dokumente
imperial
perto@@
fair
重@@
projek@@
galici@@
chtigkeit
0,00
stieg@@
politischer
weiterhin
lasting
salzburg
inations
begonnen
existiert
heavily
accounting
mut
mankind
fe
ungsperiode
2004
märz
eher
scienti@@
gerichtsh@@
yor@@
ح
ored
utenant
till
lehnen
spired
ergrei@@
vertrag@@
cu
ränkungen
nähe
˚
fire@@
muslims
großes
formate
linking
heating
ernährung
nachdenken
exist@@
opportunities
尾
police
pump
eci@@
akter@@
seines
projekte
moderner
entrepreneur@@
debated
festgelegten
ief
logistik@@
bildern
außergewöhnliche
mini
migr@@
glauben
backs
eption
happened
ull
radis@@
aken
conditions
prozent@@
geschm@@
cu@@
kapaz@@
await
richtlin@@
eingereichten
hosting
weniger
.com
zips
währungen
sincere
einverstanden
gepäck@@
zerstörung
蛋@@
distinguished
führer
sont
rechtlicher
derly
aktionsprogramm
uß
ท
duc@@
ys@@
video@@
disasters
progressive
a3@@
kept
cer@@
wunder@@
focuses
volkswagen
canary
̇
stroll
befrist@@
mitgliedern
戴@@
basis
schriftliche
弁
wiederherzustellen
aving
appearing
bezieh@@
ähnlicher
cul@@
ą
schriftsteller
konstru@@
separation
ftung
garantien
w
catal@@
仪
茶
setz@@
ausger@@
wen@@
gear
路@@
beginn
三@@
»
passagiere
stakeholders
ding@@
taxation
betrieb
entin
interessi@@
简@@
mente
kunden@@
verankert
aben
apor@@
zona
esty
face
households
lovers
ny
erika
comprehen@@
particularly
lyn@@
linguistic
denken
dear
syria
biggest
mittelalterlichen
result
authori@@
adidas
secur@@
reim@@
vi
staying
arly
türen
forscher
ausgeben
信
competence
rale
gemeinschafts@@
sv@@
accep@@
azer@@
gelt
simply
receiving
chern
thumbnail
ij@@
preci@@
sample
epi@@
teilzunehmen
李
常@@
aciones
bedürfen
reicht@@
wort@@
ズ
propor@@
unterbrei@@
organize
quelle
erfolgreicher
onial
quer
ɐ
laut@@
örde
schlimmsten
sec@@
kino
gemeinsames
sü
eilung
warme
beeindruckt
タ@@
χ@@
della
shareholders
transmission
sorge
as@@
verschiedensten
zeitungen
rav@@
ausdrückliche
tü@@
stechn@@
breathtaking
motor
nung
übrig
commissioners
parag@@
kohlen@@
arote
cannes
wachsen
schieben
competitive
board
banking
operations
ilit@@
五@@
notify
zicht@@
deserve
ez
mails
chairman
train@@
wi@@
erstens
口@@
hoffentlich
landwirtschaftlichen
angegebenen
besuchern
super@@
respected
pered
indigenous
ს@@
offensichtlich
joint
denti
bg
unger
looking
aly@@
inia
fiable
mineral@@
göteborg
feasi@@
virgin
überschwemmungen
presidential
sons
patents
drucken
洋@@
universities
beteiligten
doubt
processing
visited
brasilien
ösen
wählt
polis
langu@@
exhau@@
gifts
survival
land
assurance
verpflichtungen
bl@@
chamber
resolving
zertifizierung
murdered
profil
covering
legislat@@
ish
opt
细@@
strei@@
empfang
entgegen
augu@@
ened
pps
besonderen
gän@@
funktionieren
febru@@
enemy
sure
wettbewerb
chocolate
marine
isra@@
belt
fix
fem@@
erarbeitet
zahlen
ausgestatt@@
sexy
alternativen
gentlem@@
körpers
sit
capit@@
doctor
lische
ер
elt
uter@@
dend
wohn@@
extension
erst
jugosla@@
fantas@@
fla@@
beauftragt
passion
zuliefer@@
supervisory
ه@@
sound
anreise
hierher
bewusstsein
05.@@
着@@
ael
changed
jav@@
ärzte
gute
owners
angewiesen
ill@@
uc@@
linke
carefully
äusern
protests
aes@@
depar@@
offizielle
thessal@@
grenzüberschrei@@
implemented
neues
irgendwelche
pillar
bitter
eder@@
י@@
characterised
rupp
geboren
through
ked
außerordentlich
regierung
字
kon
remin@@
sd
mountain@@
ausgesprochen
konzep@@
堂
painting
advan@@
verstärkten
offered
ht
reduces
ھ
outline
ehl
fal@@
ank@@
orien
ehemal@@
loh@@
offices
moroc@@
kennt
civilisation
reisenden
meer
technologischen
various
permit
sequence
europ@@
ik@@
─
zertifik@@
synthetic
laufe
japans
approaches
commerce
well-@@
konserv@@
σ
ju@@
store
vicinity
sit@@
telefonisch
zusammengestellt
sé
gut
ve@@
individual
克
starke
gewohnt
arranged
tw@@
deva@@
heu
drawn
akzeptanz
ma
roles
langs@@
wei
splatz
schuld@@
后@@
า@@
retain
warmth
承@@
श@@
communication
wein@@
gegend
iden@@
anti-@@
archiv
amme
deri@@
reference
ance-@@
nä@@
projects
money
watson
verbündeten
heizung
adds
adel@@
treas@@
sty
werbe@@
gehöri@@
spuren
fer
ェ@@
kontrollen
herzlich
rental
präsenz
dignity
x
ty
tration
begeisterung
arri
应
friend
spanish
soziale
aps
sehenswür@@
ermöglichen
emi@@
schluss
regierungen
töten
eilen
griechischen
線@@
analysen
interpre@@
rotterdam
remark@@

blizzard
finnland
sow@@
brau@@
schal@@
log@@
31
äre
elligkeit
air-@@
großzügi@@
smopoli@@
ersch@@
aufweist
ead@@
nahrungsmittel@@
tainment
nü@@
zeitgenöss@@
targets
kirche
想@@
richtet
quanti@@
glas@@
hohe
gewährt
depl@@
kind@@
vy
zerr@@
oxy@@
opposing
arities
definition
verbreiten
seek
jap
längere
kompon@@
steuern
innovations@@
bauern@@
tamp@@
necessary
neun
zept@@
simplified
ablen
jpg
indi@@
prozessen
‘
compati@@
impul@@
mann@@
jeher
ώ@@
mitgli@@
ssier
beantwortet
skep@@
happens
prefer@@
ambots
olz
yesterday
ec
engagement
hostels
背@@
ruppen
consolidate
plates
slovenian
amoun@@
q
continuous
releases
erospace
kne@@
hinnehmen
monastery
eingericht@@
lean
р@@
bis@@
lj@@
juden
hof
gene@@
gezielt
tierten
unya
sion@@
versicherung
ún
प
mich
ch-@@
leading
off-@@
mein@@
ॉ@@
onds@@
deny
nachteili@@
causing
verband
einrichtung

bewerten
ün@@
ssen
schlimmer
formuli@@
milk
ge
freut
digital
scripts
24-stunden-@@
nutzern
3000
äumen
reasonably
oriz@@
co-@@
angers
sprin@@
≥
reproduction
ong@@
freiwillig
introducing
gra
ska
石@@
ட@@
mium
ž
aussprache
angegeben
ro
bly
dev
variable
timmung
今@@
filmen
line-@@
barrier
ob@@
eb@@
hill@@
telefonnummer
mechanical
besonderes
transformation
treiben
ances
einzel@@
bid
elektronischen
ehear@@
rö
ǒ@@
conceived
aded
iles
comfort@@
vic
unterkünfte
diam@@
erbracht
myth@@
shortcomings
zation
erkenn@@
duce
凄
ope
standing
vig@@
remaining
ties
‹
gas
fragestell@@
adjacent
spiele
hairdryer
fifth
vogel@@
auswei@@
subscription
tank
thesis
sab@@
himmel
beteiligung
tun
veri@@
dings
eintritt
vine@@
protected
mail@@
substan@@
dimen@@
-in
zieh
zweit@@
option
java
ence
erhebt
schäden
კ@@
루
thorou@@
confidentiality
bob@@
arbeitsp@@
急
akis
™
sah@@
tin
neutr@@
agenda
archie
damage
gott
raphs
stelle
control
strategies
writ@@
verzeichnen
consequence
nbsp
group
abschließend
lege@@
nahen
wissenschaftlich
erhielt
mediterranen
gerü@@
construc@@
vorher
vorkommen
elected
appartement
roma
consists
condem@@
verlagerung
urban@@
decades
verbrei@@
schengen
diesem
置@@
endu@@
verkehrsmitteln
appropriate
beziehungsweise
egg
leidung
resolved
ك@@
rigorous
verein
geben@@
village
renn@@
progress
lag@@
supply
res
entu@@
satz@@
sko@@
adopting
ethi@@
sendet
groß
ices
700
vorbei
翁@@
systems
litt@@
fac@@
dasselbe
liebhaber
illegally
耳@@
intensi@@
sterity
dio
sorgung
dahin@@
helping
lic@@
forbidden
ause
army
châ@@
herkömm@@
asp@@
ny@@
südo@@
gefährlichen
intellektu@@
mehrwertsteuer@@
ツ@@
funktionalität
bereit@@
ʃ@@
leisten
2000-@@
beliebte
acts
friend@@
nan@@
confi@@
monter@@
proceedings
abfälle
kron@@
wahrnehmung
zusammenarbeiten
gangs
globally
tribute
welt
foundation
pher@@
netz
unfortunately
institut
nig@@
baggage
august@@
transformed
biological
jahrhunder@@
export
sozial
verwand@@
cycles
granada
eten
effek@@
stand@@
dispos@@
benutzern@@
klingt
ausgebaut
贞
ail
ה
netzes
︰
stattfand
haft@@
gehei@@
destabili@@
hand
tex
miner@@
einfach
ʾ@@
eindeutig
discher
nous
sixth
от@@
gerade
alisten
nü
nachfrage
ies
ssa
esk@@
vorliegen
wild
prem@@
wikicars
sep@@
zeichen
klin@@
übrigen
unter@@
reception
verwaltet
railway
lifts
stellten
häus@@
eces
eleg@@
bezahlt
unication
kollegen
stresses
umwelt@@
functional
gemeldet
perform
chten
liberals
cabin
lymp@@
welcome
ity-@@
durchschnittlich
verbrau@@
betrieb@@
dia
zustimmung
ologne
delines
bug
nikon
artistic
waff@@
300@@
entscheidung
unnötig
kun@@
programs
essal@@
fairer
kid@@
local
üt@@
bonds
煮@@
arding
napol@@
impact
boston
unvergess@@
ב@@
entdeckung
machine
awa@@
bürokrati@@
ן
1978
pdf-@@
ernet
privater
won
entwicklung
fe@@
tyro@@
expendi@@
gutem
benennen
schwach@@
belebung
einstellen
번
smi@@
cling
amerika
growth
frühstücksbuffet
gesp@@
mang@@
begleiten
neh
universum
libr@@
uno-@@
sache
records
cks
spielraum
hr
sed
erfris@@
fortgesetzt
eis@@
optimiert
zwecken
龙
broadband
output
干
џ
flach@@
schrecklichen
cook@@
neter
everyday
bereiten
klen
mec@@
ausgang@@
minimal
llt
german
vacu@@
tschaft
koordination
sanctions
evening
grunde
expert
november
tags
로
ent
schott@@
frecht@@
bekämpfen
chinesische
网@@
symbols
forgotten
aine
fishing
gig@@
trail
deshalb
led@@
stipul@@
entwicklungen
solar
24-hour
売@@
aligen
äuft
cancelled
tragen
steam
algeri@@
nommen
signi@@
empfeh@@
lan
nerin
gefü@@
usable
dreams
recorded
routes
erhalten
publikationen
fax-
messenger
mor@@
nationals
versichert
strö@@
anschließen
49
é@@
cotonou
zwangs@@
subscri@@
͡
hunderte
together
vict@@
benutzung
prof@@
carrier
wanne
appointment
annan
anony@@
ilater@@
earning
booking.com
dafür
influ@@
genießen
favour
audio@@
tatsäch@@
demographic
politiken
demselben
erh@@
cken@@
wurfs
rath@@
providing
deci@@
urities
enormen
rac
30@@
ht@@
ё
live
versatile
teilweise
20th
zeige
football
tik@@
restruc@@
vel
実@@
<eos>
sur@@
gte
=
ae@@
done
ained
concerts
temperatures
お
asyl@@
希@@
getroffen
bewusst
拿@@
arctic
present
tete
united
komplizierte
kids
extremely
medikamente
ầ@@
stri@@
春@@
unacceptable
blu@@
feld@@
verständlich
ро@@
strecke
angeben
were
streets
safe
fig@@
darlehen
losing
wohner
slides@@
courage
maintenance
israel
deutliche
ush
sä@@
分@@
amas
asiatischen
stein@@
erstklassige
surrounded
selben
bre@@
pharmac@@
zugangs@@
vision
suggested
ら
green
ergebnis
brust@@
区
ures
anywhere
pfli
mitteilung
kap
verändern
lektion
紂@@
registrierungs@@
查@@
yah@@
affili
erheblich
ol
accession
stil@@
österreichischen
itably
shad@@
annual
compreh@@
calm
schuhe
energie@@
esti
energiever@@
erzeugung
香@@
明@@
gieb@@
sien
站
rec
edia
traur@@
decision-@@
sim@@
tierung
ologist
truth
alised
entitled
jews
sub@@
ques
heard
noise
beziehe
educ@@
sank@@
husband
و@@
estr@@
stal@@
spek@@
zah@@
away
ush@@
vermögens@@
呑@@
ukra@@
obviously
cop@@
到
stieg
jährliche
authen@@
post-@@
äume
bacter@@
israelische
litten
rechtsk@@
will@@
observ@@
üssen
unser
bes@@
eliminated
führender
metal
bilaterale
½
lebte
ernal
だ@@
einführen
afrikanische
betre@@
erlaub@@
๊
ayed
fulfill
staste
acy
epo@@
tivität
ran
restoring
s@@
lebensmittel
geri@@
boutique
befri@@
ung@@
teilten
bush
classification
defe@@
humans
dre@@
ort@@
mccar@@
freundliches
holding
flight
konsequenzen
ی@@
vie
島@@
mobilität
senses
tible
137
failure
mandate
linen
express@@
injury
atmosp
akzeptiert
м@@
山
fundament@@
clauses
übernachtungen
princip@@
ört
tiert
参@@
girls
starting
nur@@
ģ@@
australien
auen
ausdrücklich
audio
obo@@
üre
geographical
lebens@@
handels@@
str@@
feli@@
honourable
incorpor@@
frühjahr
kontinuität
vorsitzender
data
tor
longest
vene@@
victoria
educational
carte
1964
良@@
vermittelt
vereinbar@@
sark@@
discretion
hinzu
specialised
veaus
scha
funktions@@
onic
habt
erior
accordingly
amm@@
picard
buyer
ills
monopoly
boutiqu@@
zten
contest
afghan@@
vessel
shor@@
weißen
situation
renovation
specifications
和@@
leistung
slot
spiegel
bristol
hous@@
mensch
minded
funktionsweise
anzusehen
befindet
imin@@
diskrimin@@
schlägen
diplomatischen
timmen
kleinen
ruh@@
online-@@
chapters
threshold
mauer
府
а
awaiting
schokol@@
10,000
vei@@
categ@@
budget
authorisation
10.000
aufgrund
125
geschah
leip@@
eingehen
hütung
beauftrag@@
linked
į
gespräch
diversi
af
tim
č
sach@@
assistance
tour
etz@@
missi@@
direk@@
technischer
erry
afor@@
drücken
there
variante
republi@@
instantly
nacht
mes@@
angebot@@
live-@@
stricter
iller
パ@@
eventuell
continuation
como
genehm@@
afrika
φ@@
gebäu@@
lead
spac@@
worte
should
o
go@@
communities
erung
justi@@
控@@
nutrition
ach@@
verboten
moments
vorschriften
kop@@
际@@
nokia
subjects
listen@@
17@@
restoration
aktiv@@
法
fotografie
术@@
tob@@
endums
theoretical
back@@
tico
sorge@@
ペ@@
barbar@@
00-@@
ebenso
interest@@
violence
deliber@@
einschlä@@
giert
gegenwärtige
möchte
clar@@
show@@
veröffentlichte
iler
heim@@
couples
c.
twice
endorsed
ati
vorliegende
elli
montreal
darstellt
pakist@@
synchron@@
essimis@@
geholfen
market-@@
tas
nordic
wiki@@
bevorzugt
files
nische
contributions
minuten
our-@@
bra
schwe@@
weitere
系@@
connected
betreffend
airo
predecessor
paare
certification
biking
coton@@
painted
doppelt
konfron@@
versity
wohl
etary
ühr@@
bm@@
gdp
exists
二@@
soul
tendenz
gesetzten
州
golfplatz
island
requirement
herausragende
führt
drittel
白@@
graz
sowje@@
stainless
ansatzes
iter
ferry
arguments
transaktionen
spective
kitchen
tively
oner
dd@@
dm@@
volume
gewöhnlichen
implement
fully-@@
la-@@
চ@@
weiter@@
vri@@
tosk@@
oration
spür@@
gewöhn@@
regel@@
le@@
creating
echen
unlimited
architekt@@
nachhal@@
賢
alkohol@@
jeder
阳@@
vorsicht

nisch
ordn@@
cologne
creativity
erlangen
elektri@@
bb@@
ery
schicks@@
haps
prerequisite
lag
eingetra@@
gained
models
firms
äu@@
eben@@
results
bibliothek
schil@@
vertrauen
ensive
heraus@@
arabia
у
belar@@
ط@@
ì
anschau@@
änen
☑
übernahme
orik
zweier
berücksichtigt
privileges
tivi
hrt
定@@
agriculture
op-@@
2008
verabschiedung
cds
nominated
positiven
häufig@@
köl@@
basel
grundlage
promoting
güter@@
日
welche
viable
effizient@@
suffer
renowned
إ@@
uno
ques@@
aga
attracted
19
spacious
向@@
beendet
les@@
updated
command
sie@@
ev
fici@@
reco@@
stry
enchanting
folglich
八@@
±
assigned
darum
schnell
up@@
arbei@@
sachen
ws
reale
ration@@
klicken
nungs@@
gratulieren
ナ
义@@
niel@@
enden
ero@@
herzustellen
è
player
holy
?
eable
anism
thern
gek@@
johannes
ken
english
つ
einsatzes
ourselves
vend@@
distinc
wert
human
circum@@
sche
vell@@
machines
austrian
kri
ican
ş@@
kanischen
chinesischen
auftraggeber
geist@@
verpflichtung
brot
good
line
arch
lätz@@
-seiten
c5
enburg
countryside
cigar@@
sozial@@
gegenseitigen
texts
quanti
ektion@@
anian
ologically
lers
elev
zend
emperat@@
erlassen
bikes
zi@@
finish
institu@@
9001
darstellen
ometer
gla@@
vortrag
parliament@@
werde
employees
amat@@
lö
consisting
appear@@
mant@@
students
rors
cardassi@@
fisch@@
private
geräte
ommenen
enhanced
8,@@
primarily
van
variety
she@@
riviera
宝
femin@@
leu@@
smith
bedarf
foundations
ettet
adily
ener@@
servicel@@
eleganten
sonnent@@
digungs@@
lib@@
り
ট@@
设@@
inev
sicherstellen
cms
▼
tischen
ɡ@@
ßnahmen
fisch
institu
recommend@@
beseitigung
liable
rigi@@
auction
gigan@@
vollkomm@@
modern@@
ር@@
economics
vulkan@@
dok@@
column
adjust
meeres
gesundheits-
moderne
coming
ruhiger
nahmen@@
vorteil
detail@@
agn@@
entsprechend
erer
juni@@
smooth
opportunity
günstige
waffen@@
gegner

liebe
reichen@@
板@@
tcp
homes
j@@
治@@
governmental
hochschule
cox
verstärkung
像
dispute
normally
womit
ris
weile
語@@
nordirland
說@@
inst@@
palace
treaty
instru@@
count
40
graben
reduziert
target
canc@@
familienzimmer
unsere
combat
ej@@
norden
shared
produktion
rul@@
genü@@
beseitigen
hä@@
ation-@@
verst@@
studi@@
geehrte
geführt
boot
mission
betroffenen
16th
consu@@
mod@@
accomp@@
initi
inmitten
einhei@@
circumstances
mal
themselves
umfassender
exchanges
fifa
eim@@
mittel-
stück
racy
cho@@
efront
stores
receipt
tilien
simpli@@
pep@@
u
produkts
possibly
enthusiasts
diskussions@@
withdrawn
budgets
adjustments
stream
racle
consistently
abwei@@
diskriminierung
е
öl
с@@
tigsten
gesellschaften
然@@
disagree
wie
joseph
stitute
restructuring
publish@@
kenn@@
inger
ech@@
user-@@
relev@@
masters
dryer
seek@@
杭@@
kampf
berry
der-@@
völker@@
durchbruch
rad@@
ล
0
hong@@
bol@@
spiegel@@
levard
aktualität
ious
healthcare
ther
einfache
büros
warten
betrachten
harmon@@
ი@@
ftp
stecken
alistische
kaum
facilitating
isite
messe@@
sten@@
zugeständ@@
office
1989
ан
exactly
·
til@@
datei@@
nec@@
friedrich@@
robots
geschenk
小@@
vereinbart
concluded
liegende
ör@@
schlä@@
passenden
splan
plays
components
angen@@
mund
tourismus
viewer
pin@@
ges@@
gir@@
zuerst
ur
geschenkt
konsequenz
gbp
inion
johann
kolonial@@
nützliche
umpen
agements
wenn@@
ausreichen@@
unesco
ounced
sfer
kör@@
gri
peter
switz@@
fizi@@
dossier
un-@@
ecommerce
ны@@
scri@@
chall@@
woche
繁
stärke
kons@@
west@@
occur@@
visions
miguel
ereignisse
-
tigere
cv@@
馬
rigi
zentralbank
welthandelsorganisation
early
isch@@
saddam
county
ali
ґ@@
agement
ets
förderung
veh@@
modells
欢@@
tat@@
ergi
clothing
einerseits
verages
jur@@
reason@@
premises
behindern
000@@
gehö@@
continue
commissioned
gescheitert
kann@@
acid
ale
gangen
edi@@
tiger
tus@@
guests
1960
echnologie
ka@@
verheugen
mom@@
geburtstag
manhattan
unnecessary
ฎ@@
desktop
äufers
神@@

seem
trum
村@@
ad@@
producing
stützen
uring
sentence
familiar
enabling
herausra@@
grenz@@
ga
1st
ignored
bron@@
fün@@
uli
refers
payment
url
gardens
cresp@@
conception
gewand@@
wetter@@
here
岭
structures
yang
许@@
esti@@
boar@@
rahmen
adverse
ask
告@@
quadrat@@
α@@
chr@@
zugang
harmony
saved
erlaubt
verfass@@
asia
fur
xpress
sprechend
q@@
yn
stark
autor@@
atri@@
racies
criminals
bah@@
faktoren
erfolgt
通@@
café
chair@@
tima
foun@@
kanada
financial
over@@
28
unkte
unic@@
betra@@
disposal
äs@@
electronic
catastro@@
favourite
nötige
ldn
vergangen
式
costs
atemberau@@
forth@@
schlaf@@
gefei@@
tücher
gebracht
ansätze
bulgarien
enstein
veränderten
quil
80@@
iw@@
physi@@
po
instead
umen
һ@@
handlungen
-based
passengers
investition
ries@@
serb@@
rumänien
span
perman@@
leop@@
islam@@
ision
urged
18@@
riding
hügel
konstruktiven
26@@
sichtlich
politically
registriert
ization
石
ów
kauft
seeh@@
esion
frankfurt
diktatur
dynamischen
alten
objekte
berlin
intelli@@
wiederhol@@
brun@@
consumers
ふ@@
publik@@
enc@@
track
einbringen
hospit@@
vereinen
incentives
konfli@@
verlag
m2
advoc@@
′
divi
k-@@
ride
δ
gesundheitlichen
metals
bare
iel
整@@
built
bedeutende
erischen
ld
rechte
intly
乙
described
该@@
about
tei@@
shots
schützt
digen
creature
inspek@@
tausende
pflege
ränk@@
atische
ränkung
rentals
deu@@
schutz
ฐ@@
stration
ferienwoh@@
zeitlichen
infos
unseren
informationen
preises
produziert
憾
renovi@@
any@@
¹
entsteh@@
ika
menus
nied@@
südkorea
monat
north-@@
collaboration
honor
modus
zutaten
krise
spectacular
europaweit
surprised
erk@@
width
ual
senior
背
seven
responsible
pr@@
frühen
chestra
stri
wat@@
effectively
render
豆@@
oh
ria
sal@@
-f@@
pure
seiten@@
vinci@@
verfügbarkeit
bauer
stres@@
änder
所
game@@
licensed
umb@@
lieber
ida
meinungs@@
rej@@
friendship
dige
benz@@
zeit@@
baths
änder@@
ebt
gesendet
terme
schicht
gerungen
т@@
sprache
öffentlich
berufs@@
verkauf@@
realised
dren
teile
火@@
boy
井@@
addi@@
contributes
ensuring
b
geblieben
international
corrected
行
zukunft
ansprüchen
widespread
influence
pe
harmonisation
labor@@
œ@@
istan
hilton
refusal
ids
nau@@
，
uch
14-@@
bürgerinnen
stabil@@
cleaned
unentgeltlich
quiries
horses
globalisation
ativer
rücken
eindruck
klar@@
语@@
menü@@
29
jacques
alcoho@@
spock
ῥ@@
fernseh@@
finanzmittel
々@@
veh
本
dän@@
indonesien
eth
woll@@
slowak@@
unterstützt
ни@@
damit
zurück@@
appar@@
cav@@
pero
que@@
know@@
erd@@
peti@@
rechtlichen
ấ@@
suffering
champ@@
kilom@@
handbuch
tened
mad@@
concei@@
inj@@
†
bluetooth
ernennung
nehmern
hä
offer@@
stan@@
erwarte
lo
reveals
eliminate
annehm@@
maschinen@@
counter-@@
schichten
militärischen
aufnahmen
do@@
traditionelle
pek@@
maced@@
enger
rücke
rub
read@@
autos
beam@@
räumen
merkmale
学@@
quantity
tram@@
monte
zeitlich
safety
küste
き@@
dna
dary
onisten
fitt@@
ideology
bla@@
blieben
otti
灯
op
doch
onwards
bereitstellung
angefangen
aks
repeated
tismus
persönliche
ḥ@@
吃@@
freundlichkeit
wohnzimmer
gefangen@@
enorme
verteidigung
chronic
berau@@
erkunden
14th
draws
ə@@
seconds
genaue
enjoyed
budd@@
მ@@
ğ
痴@@
information@@
问@@
ansa
kanen
unsicherheit
santi@@
beanspru@@
ቐ@@
sub-@@
transform
e.@@
sights
dität
apar@@
trauen
le-@@
herunterladen
want
geht
prizes
trenn@@
zwanzig
屋@@
erneu@@
14@@
jerus@@
wieso
refugee
amaz@@
switching
igungs@@
fru@@
rol
beträge
bettzimmer
endes
dubai
program@@
gegenseitig
fiel
vertrags
−
implies
regionale
igkeit
casts
anschließ@@
onien
bevorzu@@
38
wachstum@@
edness
s-@@
ǻ
moldova
adults
fachen
stic
ier
genten
nationalismus
berühmten
angesehen
tices
fies
diese
c.@@
specify
finanzierung
erstattet
点
herauszufinden
sl
breitung
bem@@
大
veröffentlichten
ste
satelli@@
azza
manuel
chtern
reprä@@
hion
thumb@@
gour@@
rock
debates
fremden@@
呼
jean-@@
-ben@@
gli
e-
früh@@
authorized
bologna
angenen
räsident
orious
anpassungen
秉@@
dorthin
老
goods
many
neighbourhood
konstruktion
suspended
9.00
musli@@
verantwort@@
under-@@
laut
gemütliche
etes
rahmens
tain@@
circu@@
tast@@
van@@
coast
hero@@
besi@@
官@@
lassi@@
journalists
志
atie
fere
kriegs@@
fp@@
practi@@
anonymous
gf@@
wahrnehm@@
ych
verstößt
biologische
weihnachten
einigt
kor@@
simulation
heidel@@
inclusive
resist
sci
ges
verknüpft
fili@@
li
reasonable
a4
aufstieg
wahrgenommen
demand
wishing
holen
alisieren
chungen
memories
palma
optimale
schließt
mittl@@
tournaments
realities
velop@@
äd@@
weight
坐@@
battle
nachricht@@
pent@@
ves
annually
mechanismen
überna@@
feed
proven
angemessen
见@@
ella
hen@@
ß
schwimm@@
eno
geschickt
stige
bemer@@
tragic
reverse
史@@
logs
uung
eistungen
ь@@
10-@@
ि@@
haus@@
worfen
erfor@@
austri@@
fil
unserer
a.@@
colombia
korre@@
drucks@@
bahn
dictatorship
ory
umping
assign@@
andes
herrschaft
ernt
einfach@@
för@@
pact
grown
verringerung
risiko
fellow
78
herunter
opho@@
tability
œ
ą@@
baus
erwähnten
landing
premium
inter@@
üssel
frieden
06
uttgar@@
klare
baum@@
even
ados
agne
bricht
complete
thessaloniki
flughafen@@
definitive
slowakei
蘇
essi
32
könnt
capacity
incident
vign@@
jemand
examination
starfleet
chter
ava
währungs@@
einwohnern
durchführen
ordering
kriti@@
armament
territorium
überlegungen
erst@@
tep@@
authentic
älteste
mm
庄@@
origins
franzosen
kits
filed
测@@
mil@@
überprüfung
jim@@
leiden
minorities
olympischen
vip
dum@@
ultimately
gefahren
dual
pris@@
ミ@@
ility
kritisch
api@@
berufen
ข
leidet
96
ox
rele@@
medien@@
ows
pres@@
beide
evalu@@
lierte
findings
verlust
ص@@
michel@@
gezielte
organisiert
notwen@@
echnet
exempl@@
ied
cel@@
submitting
18th
incomplete
変@@
kre@@
klei@@
little
dru@@
gebilligt
nachhaltiges
pper
quick
furnished
items
vor@@
einem
auern
bal
grey
ぶ@@
itäts@@
heimatland
boten
multi-@@
sql
apart
zugewiesen
oter
reneur@@
mineral
ي
add
脱@@
massage
berg@@
oberfläche
haften
锈@@
steel
quis
et@@
continuously
sa@@
eriode
rounds
reduzierung
kapazitäten
zentr@@
stufen
pots@@
versicherungs@@
dialog@@
schlu@@
woman
lich@@
jugendher@@
industriellen
alleg@@
exklusive
ertem
ahn@@
alber@@
dokumentiert
xen
ill-@@
ά
magazin

delayed
riterium
john
zeichn@@
ción
ტ@@
cart@@
fro@@
á@@
bosnia
discuss@@
collective
langfristige
wesen
ene
effective
freizeit
alive
bucht
allgemein@@
maximal
erzielte
äne
egen
ric
erkenntnisse
spezi@@
iga
pressed
unting
verwenden
1994
selten
京@@
reibungen
graphy
protect
begann
aterie
ased
ler
washington
alty
währungsfonds
satur@@
gel@@
pop
aufteilung
ί@@
geschafft
alter@@
paying
қ@@
erheblichen
turk@@
ba
spartner
ignore
internetseite
thof
liederung
dikt@@
vielfach
unik@@
ehr
hauptbahnhof
enty-@@
stron@@
scene
articles
hydrau@@
income
preparation
erstaun@@
北@@
strategien
itä
wissenschaftliche
wheels
ege
kind
geförder@@
gnome
kameras
cious
tant
company
famil@@
j
vier
hauptziel
rement
delivers
ziehen
◊
austausch@@
ingrad
precisely
fortschritte
flug@@
mig@@
griechenland
multi@@
member
ruij@@
oz@@
wesentliche
nationalen
stated
sieb@@
ƒ@@
anz@@
dens
cargo
racht
slovakia
rank@@
gbarkeit
tower
stau@@
を
statistiken
verfassungs@@
technik
is@@
parties
carries
bedient
ề@@
lizenz
criminal
ห@@
altered
×
standard
crus@@
kommissar
tory
t@@
programming
challenging
ge-@@
shipped
lii@@
22.@@
schafts@@
cha@@
gone
wh@@
euro@@
sprachen
umzu@@
herum
telekommunikations@@
ur@@
ideological
sums
tom@@
ination
berich@@
idyllic
critics
unden
tle
fast
catalunya
c-@@
kt@@
lü
wonder@@
geom@@
pment
ics
charges
montag
umstr@@
haiti
untersucht
ø
supplied
lärm
credi@@
1990
besonderheiten
bedeutender
religion
ensures
forecast
übergangs@@
ferr@@
bu
ärm
romania
außerord@@
stere@@
italien
dson
ticle
besetzten
advances
۹
wilhelm
мо@@
already
じ@@
touched
wants
einigen
gelist@@
kommunizieren
alumini@@
kub@@
ʼ@@
administrations
egelt
comprising
ains
요@@
ont@@
buenos
elektrischen
informieren
herkunft
ange
astic
klasse
screen@@
vereinbarung
consist@@
ا
bizar@@
deh@@
brut@@
tnis@@
hinausgehen
门
volunt@@
思@@
experiencing
alization
oes
bry@@
assessment
assure
reply
josé
ermaßen
maria
gingen
onto
gessen
accepted
leist@@
aiming
posed
itiner@@
ergriffen
diversi@@
protest
strukturen
rosen@@
fuels
instrumente
umfangreichen
einstellungen
templates
sog@@
suicide
牌@@
sprüchen
finnischen
tasty
″
können
materials
abortion
font
win@@
lush
snacks
ländern
drogen@@
talked
video-@@
schenken
cornerst@@
sektors
beantworten
aki
dunk@@
travelling
hier@@
umstritt@@
gefühl
menschen@@
invol@@
illegal
ů@@
rei@@
det@@
phones
manuell
departments
ee@@
asean
vertr@@
ń@@
08
vertreter
clubs
movement
seminars
refund
⅛
zählt
racht@@
reads
assess@@
ul
macedonia
ɔ@@
investi
kyot@@
organiz@@
orama
tem
festzustellen
präsent
chst@@
straftaten
fahrrad@@
sus@@
vervielfäl@@
赛@@
kreuz@@
times
wai@@
ы@@
design
jegliche
ici@@
ature
verurteilt
fußball
frühling
allas
ign@@
dney
trade
vehicles
fuertevent@@
ɪ@@
ab
part-@@
deb
dangerous
料@@
staaten
ile
angen
ensured
depression
trains
patri@@
richt
gesammelt
industrien
erigen
pler
00
delegation
proved
empfehlenswert
hinter
treaties
monument
täten
keln
need@@
durchschnittliche
material@@
thand@@
公
funds
hoh@@
species
wickelt
differenzi@@
華@@
honour
ぎ@@
bul
zentral@@
grafik@@
verfügbar
agen
vorbehalte
palästinens@@
demokratisch
syri@@
e@@
resumed
ected
wolf
tibet
meinem
zugestimmt
gefä@@
embry@@
entwicklungs@@
finanzminister
ゲ@@
zeigte
170
immune
du
villen
東@@
potenti@@
rauchen
tot@@
tourism
ity@@
hof@@
rying
minderheit
ag
horn
stellvertre@@
chtigen
seien
indispens@@
tragung
egf
kodex
ungsan@@
moves
ɛ
ervice
rar@@
gert
allevi@@
zeuge
pfen
assured
font@@
stuhl
dying
fab@@
oth@@
attacks
wirksam
medizin@@
bestehend
з
artig
califor@@
profil@@
zeichnis
volles
emen
annter
geprä@@
tom
cultural
par
sierungs@@
informationsgesellschaft
aufenthal@@
termine
quartal
observe
veranstalt@@
settle
wirtschaftliche
sis
daten@@
zap@@
carried
sarko@@
developed
betrifft
anner
ő@@
erholungs@@
installi@@
proz@@
tritte
simplification
care
natürliche
erlebt
ardi@@
edern
theory
presse@@
atmosp@@
stätigkeit
parlam@@
实@@
spüren
dolomiten
lus@@
höheren
muse@@
ökon@@
图
posts
toll@@
benachrichtigt
einen
abgestimmt
worth
die
übermittelt
ison
щ
empl@@
republic@@
unverändert
per
buttons
frische
ausgewogen
sam

align@@
况@@
precise
alle
territory
integrations@@
schied
¥
虑@@
故@@
dy
forderungen
ј
andre@@
promising
ов@@
beruht
matches
pesti@@
prov@@
黄@@
alta
♪
standorte
tiz
tut@@
spiels
japanische
verschiedener
latest
net@@
computer
seel@@
geschmack@@
gambling
ständiger
erforderlich
trotzdem
adi@@
biet@@
lösung
hauses
essentially
sollten
gelingt
eder
ague
dubrov@@
gelass@@
lian
tours
tiful
gal
radioactive
europäischen
gekenn@@
sucht
possess
gottes
chain
emble
ili@@
ס
türk@@
tee
gefas@@
fur@@
zertifiziert
gem
conditional
reliability
ministry
salv@@
ihre
akt
consci@@
essen
sexual
deliver
samkeit
genommen
condemned
organisator@@
ements
radio@@
en@@
gesetzgebung
conci@@
bildungs@@
complimentary
gästen
differently
ו@@
entschul@@
entsteht
gangen@@
inische
issu@@
lage
erkenntnis
allem
schlüssel@@
ref@@
teach@@
ª
ு@@
anticip@@
bridges
besetzt
cy
südlichen
spezifischen
neu@@
ectiv
erforderliche
clarity
én
eter@@
ப@@
ans@@
vertrau@@
ovo
r.
negativ
landschaften
е@@
disadvantage
primary
otte
ό@@
tos
code
recip@@
meer@@
{
guatem@@
schen
versorgungs@@
kalischen
ْ@@
designer
pts
dent
infection
anwendungsbereich
bezauber@@
umfassen
gram@@
wegs
inner
health
uph@@
alla
kennen@@
events
schot@@
fähig
überarbeitung
retained
ڭ
士
auflagen
them@@
ologischen
sted
fav
deter
swiss
ähr
gee
dende
nicht
trak@@
einher@@
guaranteeing
pat@@
encomp@@
consequently
zweiten
ت@@
prüfungen
excessive
ệ@@
ன@@
≈
prochenen
databases
cus
ätzen
anta@@
modern
fielen
embra@@
gerufen
coordinated
judges
joining
games
because
邱@@
parall@@
vermei@@
creative
hundred
km@@
milo@@
bisherige
fuel
plastics
reached
vollen
therapeu@@
dé@@
otten
lesson
%
forst@@
beizu@@
darüber
lcd
cam@@
bru@@
be@@
alisch
zes
‎
vals
剑
gosla@@
exzellente
encing
ständ@@
marks
inhabit@@
28@@
の
singing
dv@@
si@@
验@@
plenary
event@@
impf@@
臨@@
düsseldorf
hotel@@
arien
spezial@@
normale
lido
ja
off@@
vorher@@
overnight
gher
600
herein
perfekt
stones
getrenn@@
manhatt@@
itz
latvia
nazi@@
ru
enlar@@
break
¢
eigene
shoot
blei
79
belast@@
比
alleine
geöffnet
฿
sleep
preis@@
ć@@
h.
ax
behörden
gaben@@
fonds
stich@@
blo@@
oler@@
就@@
nachdem
fat@@
zer@@
agnen
brenn@@
fought
length
kluft
behinderten@@
maintain
ministerpräsident
loyment
icker
belastungen
einigkeit
inci
kommun@@
entscheiden
gesch@@
koll@@
उ@@
vorsorge@@
gezwungen
sicht
angehörigen
裂@@
preliminary
sovereign
são
bier
corn@@
neighbours
gp
diversity
reason
pointing
fit@@
coo@@
attack
excur@@
herzen
reif@@
gesellschaftliche
spektrum
dealt
щ@@
erscheint
patienten
etic
ume
klimaanlage
ta
siedlung
voraussetzung
υ
petition
cially
proceed@@
ค@@
belgien
peaks
ன
restrictions
ault
cha
mire
inadequate
fas@@
err@@
stain@@
teen
redi@@
participating
נ@@
internationaler
welcomes
tron@@
scht
führen
ṇ@@
hierbei
aneous
backed
blick@@
tis@@
mrs
stattdessen
辛
thyssen@@
ologi@@
chil@@
erkt
anfrage
necess@@
bestimmter
vorgestellt
greg@@
abgeord@@
conf@@
beur@@
n-@@
erledigen
greens
there@@
ille
behandeln
refuge
quantitative
oper
i̇
ographic
judged
credit
numbers
founding
space
06.@@
individu
東
führung
beloh@@
lessly
た@@
outs@@
drückt
villa
trig@@
korrektur
之
lown
ession
alities
pressing
auber@@
mittelalter
erdbe@@
durchzuführen
möchten
onia
simultaneously
privatsphäre
ats@@
stütz@@
institution
ridi@@
lehre
zig
ommer@@
tious
roughly
zulässi@@
経@@
remove
spannende
barcel@@
lt
lifer@@
zul@@
komme
schwedischen
panoramab@@
territorial
besucher
conver@@
kirk
lieblings@@
omm@@
und
licher
vergnügen
drittens
ablish
intentions
teilung
weak@@
befrei@@
undene
iden
hell
bequem
ao@@
erhöhte
mati@@
sustained
stir@@
feeling
nehmer
wilhel@@
accused
dimin@@
nez
passag@@
schluß
sämtliche
gebung
ärm@@
wil@@
specified
ợ@@
span@@
vital
ber@@
म@@
kindern
man@@
drink
tness
britischen
suits
atom@@
0er
vorstellen
continents
paci@@
quoted
evaluierung
conscience
commercial
ock
terer
fly
beamte
when
herrlichen
pol
produktiv@@
roads
anz
ansonsten
dramatischen
話@@
ligh@@
tauch@@
nordamerika
collap@@
organ@@
urity
benötigt
kabel
generates
ire
93
ช
utzen
zellen
troops
soldiers
cala
verification
verbieten
lek@@
under@@
voll@@
exper@@
ries
thanking
365
luxus@@
onian
führte
ancy
inneres
swoboda
realistic
spezifische
unanimous
aiss@@
harry
菜@@
rights
campaign
nato
ship@@
park@@
mäß@@
unterstützten
oppon@@
aupt@@
ger@@
surgery
ihm
republic
lan@@
bodies
displac@@
notwendige
spartner@@
ote
mobility
pierre
oul
verbreitung
recei@@
vorbereitung
worthwhile
succ@@
antas@@
tragödie
gehen
bungs@@
tuscan
belonging
einsatz@@
メ@@
talks
eval
superior
tay@@
photos
komplizi@@
vity
internally
reiseb@@
teilnahme
握@@
endt
accountability
consisten@@
zö@@
ll
raums
ausgewählt
cover@@
geteilt
sonder@@
enter@@
bark@@
except
garden
bende
offers
ě@@
throu@@
zugesch@@
firmly
unities
˜
オ@@
enz
tragö@@
24-@@
verwendet
gemeinsame
ch@@
clear@@
schlechten
freu@@
them
thaus
cherweise
affen
1920
vereinfacht
action
ank
making
häl@@
politik@@
soli
form@@
chef
getrennte
ladimir
therapie
verwirklichen
į@@
schande
mä
confidence
abolished
ρ
vorgenommen
soldaten
thias
s-
っ@@
stehe
faszin@@
promot@@
balconies
älter
proposal
archi@@
now@@
ausübung
frau
ज
mit
verwir@@
ühm@@
沙@@
bedeuten
ু@@
360
americ@@
tv@@
mol@@
themen@@
senschaf@@
anti
น@@
enswerten
definieren
revolu@@
coordination
智@@
adays
modell
belieb@@
stick
is-@@
contri
russian
5,@@
jurisdiction
wellen@@
econom@@
nine
koh
russ@@
apply
ral
schu@@
geräten
asien
zins@@
valleys
÷
bulgar@@
kopieren
anstieg
colleagues
hätten
bild
生@@
ential
cam
有
romanti@@
bedingungen
zukünftigen
mi
perhaps
bis
adria
pushed
strikes
perception
feier@@
放@@
inhaf@@
verabschied@@
누@@
elson
ym@@
dürfen
vigor@@
descriptions
cô@@
lon
unanim@@
intim@@
66
12.00
野@@
7-@@
karri@@
completion
palais
ples
allowing
일
momente
independently
tells
earn
massi@@
standard-@@
privaten
ผ@@
gers
1945
acity
artik@@
refuse
schengen-@@
select
rss
chaos
dity
stric@@
mexiko
rüst@@
hingewiesen
wet

speaking
referenz@@
jedenfalls
scher
lier
das@@
salle
ኦ@@
nas@@
attached
宁@@
97
istic@@
regrett@@
eriums
pass@@
bemühungen
vorberei@@
komplette
巧
news@@
officers
per@@
蔓@@
acknowledged
chen@@
consumption
istische
tanz@@
euch@@
einzigartig
admit
throw
winkel
nation
laun@@
widmen
politi@@
nevertheless
protection
vereinigten
aband@@
ois
marri@@
mö@@
adequ@@
profits
noch
season
ishing
fortzusetzen
branchen@@
schwächen
pit@@
aints
stö
dule
zös@@
tischer
sprachigen
increase
recreation
cypri@@
reveal
weine
relationships
übersetzt
soviel
artet
ረ@@
exert
organismen
erfolge
measurement
sanktionen
adri@@
2000
as
ami
aids
在@@
sage
kalender
expresses
coins
jp@@
existed
conversion
consumer
jack
warcraft
zweifel
commodity
demok@@
ngl
ationale
zipiell
inken
unterlagen
pursuant
kömm@@
eken
chirac
raid
如@@
king@@
verschoben
ährt
取@@
ktor
weihnachts@@
⇗
telephone
stands
spaziergän@@
-benz
phar@@
famous
wässer@@
tia
iev
fundament
durchgeführten
cell
eur
chemik@@
inity
ህ
getrei@@
stand
post@@
pan@@
feed@@
opia
notably
propag@@
elektronischer
ќ@@
appreciated
singapor@@
bring
anne
ard
technologi
beratungs@@
wollte
addressing
inbegriffen
amend@@
convincing
russi@@
onal
drama
buchten
steinberg
kilometres
garantieren
на@@
langt
betriebs@@
ruhen
jeop@@
ap@@
icks@@
isieren
cultur@@
折@@
inated
breit@@
katoren
mer
dable
bil@@
jn
athedral
massen@@
wäl@@
欢
empfehl@@
kostenlosen
australia
platz
direc
黃@@
termin@@
ing-@@
thyssenkrupp
oils
galerie
sachver@@
unterschiedlichen
food@@
demokrati@@
jet
ops
jeweilige
持
täts@@
丹@@
rupt@@
medik@@
elys@@
не@@
smoking
highest
encourages
hanno@@
industriel@@
faire
bai@@
brief
geschle@@
afghan
jordan
anying
öffnung
schw@@
extremen
ባ@@
million
rezeption
osen
alcohol
gedächtnis
ever
hague
personenbezo@@
ardin
ế@@
ße
übergreif@@
flag
meistens
loss@@
natural
incorrect
einger@@
configuration
river
pron@@
caught
fortunate
träch@@
nearly
quint@@
ั@@
gets
fra@@
prague
within
insgesamt
unded
68@@
gle
ont
lyon
zia
least
white
gemessen
eligi@@
wales
ub@@
gelassen
gebaut
verlängerung
etten@@
thin
solo
fahrts@@
declarations
prescri@@
明
goes
trails
kauf@@
forts
ufen
introduce
vorherige
gewisser
gesand@@
ano
soll@@
namen
周
郷@@
月
darstellung
italienische
sional
stor@@
angebracht
mö
chance
algar@@
dlicher
erschienen
lows
cd-@@
electri@@
l.
button
kreative
р
kar@@
hinaus@@
canada
behei@@
ateur
efel@@
è@@
capitalist
sind
：
tens
kyoto
probe
adriatic
mac
ิ
disabled
seam@@
soldi@@
vier@@
achieved
주
spartei@@
人@@
od@@
abili
resorts
anci@@
effort
ack
peru
freund
wech@@
stat@@
戸@@
französische
verleih
但
investigation
ร
ר
throu
splendid
alco@@
me@@
gelesen
operationen
ｿ@@
ebay
comp@@
educated
industri@@
x-@@
onym@@
platte
pran@@
architec@@
üch@@
1@@
hundreds
schwellen@@
long-@@
cross-@@
sending
utz@@
sively
route
geschichte
outer
ຸ@@
wurde
newspaper
pas@@
veröffentlichen
defini@@
ädern
bestehen
after
pause
schrittweise
allgemeinem
ilt
placement
ierten
kühl@@
coinci@@
sphere
ös@@
fixed
依@@
messung
gründlich
垣@@
gesunde
item
photo
causes
financing
straight
acqu@@
contracts
anträge
geschlossene
enever
südafrika
anything
email
nichtraucher@@
1947
transportiert
popular
eby
open
anerkennen
skal@@
indoor
scho@@
zunehmen@@
immediately
juris@@
charakter@@
werkzeug@@
excluding
echnik
grundlegende
mobili@@
annten
stimulating
book
bewus@@
üren
reichhaltiges
unserem
wra@@
getränken
erzählt
occurs
lesen
zugreifen
steady
ebene
ember@@
gehens@@
umfassendes
marked
fans
zulassen
imagine
hierfür
eping
recover@@
unlikely
gegenwär@@
seri
ungleich@@
est
posselt
andr@@
cosy
juan
degrees
mädchen
text@@
zeption
produktpalette
wire
producer
up
comply
nor
dauerhafte
ital@@
wachsenden
behandlungs@@
porno@@
crime
icious
gere
kredi@@
zimmer@@
st@@
rolling
imes
metres
prerequ@@
endgültigen
poration
punk@@
gue
ft-@@
requi@@
interfere
death
tape
immer
rhetoric
überhaupt
privat@@
cairo
ond
campa@@
sq@@
愛
refer@@
ec@@
ils
experts
frau@@
druck
gerlich
sieben
beides
unverbin@@
fail
requ@@
parameter
cherten
millenni@@
¶
gering
affor@@
wm
immedi@@
ج@@
deaux
entures
verletzt
platten@@
reben
toul@@
director
ホ@@
cury
surround@@
2050
ى@@
geleg@@
emed
kulturen
ergies
investigated
enstadt
overlooking
retro@@
eline
state-@@
abor@@
dynamics
average
浙@@
ritz
ungen
ité
่
controlling
liability
utation
broken
四@@
pad@@
civili@@
punc@@
pä@@
blas@@
präz@@
benen
arme
82
dort
jedem
postponed
geräumigen
ret
schau
ero-@@
rä@@
ะ
schten
kollegin
sales
diversen
aku@@
vertriebs@@
reichhal@@
award
takes
disputes
›
fabri@@
nett
hüb@@
duties
-ster@@
verlieren
sierte
themas
accum@@
บ@@
congrat@@
romagna
sell
emm@@
erreichbar
foodstuffs
alkohol
enzimmer
oil
sse
speeches
persönlichkeit
wachst@@
perfectly
hotelzimmer
ổ@@
haltet
unmittelbar
ücken
börse
au@@
retur@@
lager@@
necessity
7th
barnier
38@@
pass
eras
kommunistischen
assembly
light
beschreibung
orten
geschicht@@
fruit
sug@@
ven
invites
lo@@
mexico
zur@@
申@@
gewöhnlich
years
träglich
destens
mot@@
submit
sensitivity
permanent
motors
registered
landscap@@
besitz
ರ@@
eignen
inspiration
ad-@@
bevor
valuable
deep@@
andere
afraid
ắ@@
iraq@@
gegn@@
genauen
swimmingpool
wahl
mut@@
ography
verhältnis@@
ütz@@
konstruk@@
imo
operated
berei@@
ación
deutsch@@
レ@@
島
heiten
inkl
tile
2.5
instanz
systematically
matched
understand
stiftung
せ
ressource
cs
cont@@
differ
termination
jazz
dom
isse
cali@@
kurs@@
dahin
nummern
chs@@
soweit
aching
deutschland
echt@@
toilet
wich@@
sa
connections
cap@@
transit
dennoch
specialists
ementi@@
rett@@
tal
match
waste
ulation
aufhebung
ン
gefangenen
vorübergehend
deutlicher
ê
threaten
gegangen
vent
eigentums@@
33
promoted
inning
ingen
prozess
berechtigten
institution@@
reaches
vierungen
crew
käse
ownlo@@
ancient
verschlechterung
pfei@@
....
stabilität
sko
ruß@@
prodi
ї@@
telecommunications
emark@@
atoren
musst
lexi@@
avi@@
haf@@
wovon
magnific@@
juristische
asps
gebur@@
tex@@
ो@@
supplementary
cubase
dul@@
➚
accuracy
räger
vista
tax@@
sogenannten
segments
anter
reach@@
ming
var
albert
collecting
efficiently
emergency
כ@@
solcher
flu@@
ahr
trucks
milit@@
kultur
arc
雲
inequalities
leh@@
verursacht
potenzielle
hotel
malaysia
ungser@@
kum@@
persp@@
survi@@
then
conom@@
0-@@
ör
lla
pite
assessed
gste
oun@@
desert
zed
beauf@@
geschütz@@
gr@@
por
programm@@
anforderungen
bericht
leb@@
y-@@
klären
zimbabwe
unterhaltungs@@
cas@@
kleinere
opens
hide
raf
hören
ṳ
welve
จ@@
congratulating
oly@@
bung
spaziergang
berücksich@@
秦@@
außenminister
ausführ@@
va
ck-@@
zustande
beginners
drin@@
dokum@@
halts
engines
pes@@
pot@@
quet
konom@@
不@@
konzentrieren
utely
4th
い@@
commander
menu
betracht
sollte
unning
file
poettering
ŝ
jugendlichen
zwischen@@
chner
ested
wash@@
sitzen
flücht@@
ller
road@@
internationales
oms
norway
compensation
pa
si
vernehmen
limited
wollen
eps
iertes
perspective
certainly
agrar@@
varianten
sole
fliegen
aver
thus
chs
gesamten
ch
exam@@
ennt
12
lizenz@@
pro
gali@@
untern@@
sofar
wenige
ente
dür@@
lodge
ester
solches
geachtet
undertaken
brazilian
anders@@
opposition
ekte
δ@@
durchsetzen
fisher@@
gründe
あ@@
mischer
ipod
hinder@@
greek
ua
別@@
porary
verhand@@
fluggesellschaften
kurz
haushal@@
completed
rel@@
ließ
defin@@
facilitate
a1
versprochen
privileg@@
enha@@
wärtigen
patterns
bo
diseases
schar@@
m-@@
hotels
werbung
aller
belastet
膚
eleganz
zentraler
entity
gleichzeitig
endant
orgt
zuvor@@
lander
konsequent
wearing
gels
besonders
ค
hängt
widersprechen
appreci@@
lässt
र@@
sav@@
lez
presented
blieb
wandern
ät
ind
multin@@
ph@@
meeting
aush@@
ziel@@
mixture
isons
maßgeblich
nc@@
furthermore
a5
telling
sieg@@
naments
ネ@@
organisation
dienstleistungsrichtlinie
tä@@
bring@@
ψ@@
kur@@
report@@
ents@@
einzelnen
unny
transfer@@
˝
affung
modernsten
some
kenntnisse
ine
legally
misleading
fang@@
dealing
eh
scanner
otive
ruhige
stories
‒
beob@@
sg@@
palästinensische
advant@@
џ@@
ermin@@
contracting
info@@
gency
spani@@
spiri@@
weakness
wi
blau@@
co@@
meal
aten
beherbergt
ber
ants
bek@@
converted
hire
mis@@
kaufen
sanc@@
onischen
progres@@
anhand
intent
happen
ern@@
outlook
vely
persönlichen
ebo@@
authority
chtig
au
genz
bend
befinden
码@@
friedens@@
dank
ara@@
ckt
sorts
anla@@
anwendungen
ordner
erstat@@
liert
läge
französ@@
refu@@
erzählen
erscheinen
klo@@
cle
ain
beginning
respect
veränderung
►
ѓ@@
advocates
ł
节
uttle
verluste
iri@@
accordance
暫@@
ท@@
mines
scep@@
displays
deinem
detail
hec@@
rechtfertigen
administration
wand
stär@@
collections
behavior
ritte
fort
betreiber
guten
meeres@@
१@@
2020
ergreifen
vocational
schienen@@
obvious
young
änderung
「
präsidenten
counted
heißen
ossen@@
ﬁ@@
april
panel
deutschen
gramm
aer@@
gestattet
networks
environmental
operator
argentina
enz@@
ת@@
agr@@
besteller
mainten@@
übersetzen
ismus
kking
forderten
obliged
drive
s
händler
ambition
glad
g@@
為@@
costly
vermark@@
egenheiten
nutzung
dialog
marbella
lending
improvement
vermieden
past@@
rotary
measured
spezi
boasts
elev@@
botschaften
raise
umgesetzt
ive
following
ata
fully
名@@
引@@
医@@
visory
überra@@
saturday
bar
њ@@
ernst
phone
landes
tiveness
stab
introduc@@
assen
zielsetzung
ば@@
employee
patent
wurden
ideale
zugr@@
bestimmungen
taining
pay@@
ድ@@
devastating
vibr@@
渲@@
copper
business@@
幸@@
erungen
öhne
god
verstärk@@
dubrovnik
affordable
chair
steep
companied
危@@
basi@@
air
bewaff@@
classes
lichung
öffent@@
zustell@@
asis
ビ@@
ching
dies@@
λ
transport
novel
hafter
münchen
beef
music
bers
detect
genau@@
large
pk@@
1984
satzes
taste
за@@
smoothly
sophistic@@
jede
verabschieden
ำ@@
annen
hai
ferienwohnung
sprechende
denke
denmark
nig
án
contacts
中
malta
industry
agon@@
zahlungen
stall@@
berücksichtigung
做
kurs
ä@@
spiel
twin
conci
tage
baj@@
retirement
beurteilen
enthaltenen
ebody
reden
release
dish
repar@@
abreise
dänischen
intelligence
kriege
des@@
instruments
iso
wirtschaftspolitik
verbot
ja@@
succeed
sw@@
quare
awards
enhagen
lif@@
lauten
core
coat
师@@
qualification
ended
erkennbar
◆
einfluss@@
sohn
proposals
셀@@
irc
produkte
tap@@
entstehung
ম
ideally
uns@@
kunft
consult@@
ablauf
ji
algeria
chen
fragile
schönheits@@
bert
che@@
150@@
richtigen
statis@@
ype
onische
alu@@
deutsch
gipfel
films
intui@@
cleaning
younger
gefangen
overall
konnten
betreibt
beabsichtigt
kö
reinforced
urlau@@
24
bor
ッ
oracle
solidaritäts@@
第@@
anlass
niederlanden
dining
minim@@
motivi@@
gend@@
zugänglich
swimming
entschei@@
crowd
mos@@
6.@@
kapital@@
grow@@
treiber
sem@@
ゴ@@
brothers
schäd@@
bomb
ät@@
cluster
flü@@
süd@@
verbesserungen
enn@@
energien
ates
openness
paid
nichtraucherzimmer
若@@
ischen
cies
entscheidenden
enhancing
basic
嘛
unvergleich@@
luftfahrt@@
ierenden
istischer
brem@@
englische
recall
congo
krupp
ル
量@@
mia
ablehnen
stru
überarbeitet
deser@@
egen@@
ohn@@
gep@@
möglich
delightful
passage
sozialisten
russischen
playground
hat@@
ell
wählen
blog
quark
named
erwarteten
ば
staatliche
anen
tions
1963
mön@@
maximalen
erwäh@@
demonstrated
tention
cathedral
γ@@
besonder@@
binary
较@@
9
ер@@
reaktion
time-@@
ा@@
ai@@
glücks@@
ampli@@
oc@@
vertrieben
herzegovina
dress
verti@@
fokus
hinter@@
versorgung
逸
瓶@@
oecd
ingu@@
tel@@
unden@@
statute
sandstrand
charta
≠
völkern
politi
gil@@
alistic
destroying
ð@@
mobilen
develop
hundert@@
thu@@
optimum
lebenden
bearbeiten
zung
oro
begriff
atom
pub
gruppen
и
erungs@@
absurd
php@@
ovi
legten
ressourc@@
區
나
garanti@@
echno@@
finally
ware-@@
surveillance
supported
amt
fuss
manche
chechnya
pilot
äter
aufforderung
riesigen
episode
structure
herstellung
müh@@
agte
unterhalb
dlichkeit
tough
ega
tru@@
kart@@
wasser@@
avoided
ausschuss
anmel@@
flugzeuge
ison@@
wohlergehen
nichtregierungs@@
ha@@
preserving
kuns@@
verkehr@@
erb@@
du@@
ŭ
insp@@
覧@@
critic@@
thirds
attending
zeh
vibrant
washing
tailored
amer@@
ŷ@@
台@@
bedingung
tivitäten
setup
sweden
wartungs@@
brei@@
zweif@@
knowled@@
bügel@@
trained
tips
geschlossenen
cas
photoshop
ст
mitten
benefits
org
arbeits@@
warm
entlich
erfolgen
züge
hintergrund
lehrer
tum@@
ementary
mobile
released
reichweite
純@@
lieferanten
woh
城
qualitative
großartigen
cube
session
welcoming
spät
mi@@
thir@@
reactions
kitchen@@
quality
nten
ordnungen
键@@
host
keinerlei
since
aufen
unterbre@@
leitlinien
hussein
bier@@
developing
riterien
complement
ige
prioritäten
nutzer
booked
ex-@@
dad
sent@@
redner
modules
fines
sol
ahl
gebühr@@
afft
folge@@
sofortige
shop
spiritual
彻@@
cinal
psychological
ma-@@
et-@@
ausschließlich
eltern
servi
dt
eß
gelegenheit
ow-@@
ario
doha
distributed
bauen
fair@@
organisations@@
beziehung
gon@@
otel
jose@@
thinks
ϊ@@
pal@@
guinea
hei@@
present@@
auswirkungen
ca
angesprochenen
elegance
ann@@
protot@@
öffnet
ರ
echten
bemüht
親@@
inn
ご@@
merk@@
setzbar
reduc
passenger
geograph@@
plötz@@
ecu@@
inability
getting
flows
ɕ@@

einzur@@
deriv@@
役@@
uner
forth
ken@@
岭@@
obenen
access
british
vivi@@
bedau@@
missions
energ@@
attraktiv
substanzen
beschäftigten
aut@@
air@@
sitzungen
dollar
anta
wirtschaf@@
direktor
revenue
transposition
negotiation
ologien
beginnen
poker
magnetic
birds
aket
anderswo
hygiene
expressly
ander@@
meaningful
bow@@
ѕ
containing
geschäfts@@
distribution
俊
festgestellt
argu@@
6-@@
bei
-sterne
guant@@
writing
esische
non@@
43
pts@@
molec@@
emann
lingen
nahme
rid
auslän@@
rück@@
bleibt
statutory
wait
relativ
kg
geleistet
derzeitige
interactive
subsidiarity
poli
spons@@
proofed
auszuführen
durch
rer
offici@@
lieutenant
面
wus@@
innov@@
lam@@
lawful
enty
cli
mutter
paths
verth@@
protective
ungsum@@
boh
anforderung
sandy
trage
amtierenden
anks
supporters
alg@@
heitlich
micro@@
schü
xy
祸
diesen
atic
rey
些@@
45@@
fascinating
cke
vis@@
mitteilen
ologists
22@@
erfolgreichen
tra@@
ש
geäußert
small
einhalb
falle
festlegen
islamic
prec
immense
tats@@
raum
recording
griffen
indicates
shame
ministr@@
immun@@
ต@@
book@@
tran@@
florenz
schie@@
ous@@
aters
ately
gelag@@
promised
tes
ხ@@
bezahlung
irish
earth
aloge
aesthetic
tp
multimedi@@
geschei@@
charged
schaft@@
alarming
fs@@
pen@@
鼻@@
els@@
town
figures
ystems
weiß@@
handels
entdeckt
에
ooth
versorgt
hund@@
insufficient
kraft@@
ratschlag
丽@@
f@@
su@@
rek@@
translated
迎@@
ngos
imposed
liberalization
changing
liberalisierung
om
rassismus
angeht
umstände
proto@@
or@@
ypen
rand@@
kunft@@
ähnlichen
ture
zip@@
ärten
liss@@
understood
palästinensischen
by-@@
anzuwenden
undoubtedly
ehem@@
unlike
abhängi@@
beschei@@
plug@@
yugosla@@
basis@@
genossen
enon
losses
auseinandersetzung
setzt
enseits
th
bibi@@
köln
kompromiss
versi@@
während
turin
pet@@
rubber
beträchtlichen
contains
parc
biodiversity
thum@@
virtually
smu
ensem@@
soeben
元@@
horizont@@
remind
dership
ŕ
洛
generate
liga
yo@@
sex@@
winners
unkten
ecological
werben
defence
nachgewiesen
beträ@@
accommodations
flags
denten
uty
erfahrung
immobili@@
oned
trags@@
移@@
freight
purchases
screen
searching
hub
○
heath@@
ziemlich
ungarischen
römischen
purchase
cann@@
boarding
spanien
☼
religiösen
einw@@
哈
spanisch
omp@@
year
将@@
exchange
ź
dul
behandlung
ứ@@
harten
emerg@@
profit@@
mep
mas
pen
japanischen
quarkxpress
sinc@@
hectar@@
gleiche
crop
pläne
regulated
länger@@
flat
dvd-@@
transit@@
ז@@
isiert
drives
proof
kyi
späten
genug
exe
überwach@@
zel
zentren
➲
introduces
halte
greifen
螳@@
eltern@@
seeks
verts
vention
erfordert
advertising
freundlicher
correctly
hochwertige
grundlegender
introduced
persec@@
bbc
projekt@@
overcome
wirkt
paradox@@
systematic
cro@@
ble@@
insi@@
unas
entdeck@@
geeignet
puer@@
chip
sozial-
instand@@
sorgen
zwin@@
binding
heits@@
deci
03
fruits
alig
enzen
akp-@@
content
ussels
lohn@@
simul@@
splan@@
verpackung
tremendous
rub@@
n@@
box
schei@@
blü@@
schritt
brazi@@
websites
rom
gedanken
征@@
alphab@@
gesell@@
paired
wesentlichen
voltage
multi
einsetzt
einig
hervorragende
zugeben
genügend
schmer@@
alike
ce@@
sequently
ι@@
slight
abschluss
electronics
decrease
entwicklungszusammenarbeit
gebnisse
rest
lical
vergnü@@
۰@@
ण@@
ick
abroad
aktuellen
ten@@
az
ada
lst
hausen
eien
attraktiven
entwickel@@
dereg@@
generally
industrie@@
netzwerk
tru
expertise
traditional
luxury
standpunkte
class
signific@@
sicherungen
ahr@@
ati@@
spanische
anhörung
ст@@
sc
bo@@
impor@@
meantime
gross
el@@
prob@@
danke
decisive
d@@
influences
zufried@@
न
001
fr@@
lev@@
allgem@@
w-@@
getei@@
antivi@@
energiepolitik
trinken
männern
ally
pressem@@
dialogs
restor@@
bestän@@
specific@@
autonomie
ardis@@
coordin@@
europ
herzlichen
überprüfen
obst@@
versary
param@@
ältere
how@@
erenden
zwingt
pled
ismo
berliner
押@@
sy@@
excellence
vorgesehene
reagieren
bridge
erwartungen
wettbewer@@
fraud
ptions
rising
überzeu@@
zweite
lokalen
zumindest
aktionen
vereinfachen
zusammen
ỹ@@
harsh
gestrichen
nois@@
steller
freely
hostel
gekennzeichnet
rh@@
zeichnungen
held
bezeichnet
entspann@@
angem@@
fing
elling
atik
rehabilitation
zusammenzu@@
flügen
komit@@
vement
eads
recovery
ici
worauf
steh
wozu
treten
isen@@
geburt@@
game
dlichen
zealand
medicinal
smoke
pret@@
klassischen
oral
angehen
never
atisch
enco@@
halbe
jet@@
ַ@@
ih@@
ip@@
/
qualified
improve
granted
bella
guarantees
sicherheits@@
institutes
folgend
ols
intend
shift
ulating
gesamt
authors
tourist
suche
lä
lively
ever@@
thotel
repressive
invented
ony@@
rug
permanently
licity
steck@@
defic@@
gem@@
categories
rass@@
bath@@
ierende
stalin
cameras
pus@@
体
steh@@
조@@
intervene
ament@@
ę
contri@@
―
ev@@
unn@@
rice
getreten
no
⌃
stätten
act@@
nähr@@
elevator
dolmet@@
ließen
east
verstehen
vorwand
cking
tered
gemeinschaftsrecht
2.1
deckt
gentoo
monop@@
anbet@@
壳@@
gesi@@
wichtige
stunde
magical
auswahl
abends
tief@@
2-@@
subsidiar@@
possibilities
organized
語
draw@@
societies
repräsentiert
ön
politisches
ga@@
protection@@
hyde
insel@@
vehicle
teenth
pumps
tchen
freedom
achel@@
ago
müssten
utili@@
collabor@@
succeeded
freundschaft
ч@@
egi@@
ular@@
dram@@
irresponsible
trouble
rufe
strict
eignet
abolition
icons
anlagen
wahr@@
ommission
include
ה@@
mittleren
gewonnen
oria
ne-@@
zeigt
bur@@
trilli@@
heathrow
aim
ard@@
herr@@
grä@@
vorange@@
gos
ade@@
atti@@
bäume
partic@@
charakter
sigkeit
rigid
terten
유@@
appl@@
subsidies
林@@
gerechtigkeit
politikern
wing
mitted
ل
trock@@
indu@@
beitrag
multiple
fulfil
visitors
strä@@
abzielt
ergän@@
ageing
tre
zivilgesellschaft
ื
ケ
uhr@@
35@@
reichung
jarz@@
loaded
bedeutung
request
krebs@@
intensive
stop
ses
formerly
atar
diplomacy
planes
humanity
documents
dachten
organization
sionen
paulo
zagre@@
enable
ho
skap@@
attend@@
gehandelt
recy@@
ées
centre
vulner@@
tiv@@
erfolgreich@@
terror@@
map
rettung
gy@@
aussieht
vertreterin
ieden
st
zuzu@@
organizations
com
wenn
ett@@
halter
glaube
kunfts@@
häre
ạ
smitgli@@
beglei@@
erklärte
tendency
besitzt
ffer
finger@@
salz@@
7@@
disc
preparations
domain@@
treatments
getauscht
arri@@
plom@@
ጨ@@
rem@@
plattformen
ಶ
counting
replace
applications
支@@
entsprechende
海@@
besteht
halten
│
tu
ung
blei@@
halls
科
entrums
module
brief@@
hope
ück@@
stern
navigations@@
beton@@
esen
ssel@@
brit@@
intel
opf
gain
um@@
rought
ო@@
sti@@
間
eilungen
situ
體
acquired
fitting
ॐ
itations
m@@
andrew
loten
donations
xml
latz
prohi@@
lücken
巻@@
organe
etero@@
atem@@
teten
ಐ@@
world@@
impose
discussed
barem
notified
zügig
roll@@
cp@@
ince
sher@@
balls
☎
confront
inklusive
feeding
ular
varies
landscapes
waffe
occupied
accessed
秀@@
juice
cave
sec
崔
zufügen
mail
oberflächen@@
sob@@
improves
finanziell
ṭ@@
redund@@
kas@@
dez
südtirol
י
menschlichen
had
band@@
に
terrasse
bank
.....
ulate
hold
profile
einzige
ischem
liches
dairy
mo@@
kus
tene
gefällt
sortium
combin@@
dropped
motion
mem@@
灰@@
beau@@
höchste
defines
produc@@
garde
modell@@
prominent
ext@@
urch@@
inhal@@
corruption
wissenschaft@@
entwickl@@
speisen
ג
geboten
unfälle
cles
об
ilation
desper@@
迎
labels
ल@@
programmes
zusammen@@
phenomena
dann
bün@@
alen
bewaffn@@
agentur
recruitment
ahren
lebanon
drafted
vineyards
☻
norm
verstanden
alt@@
gegenstände
vorteil@@
richten
on-@@
promp@@
æ
aimed
lost
ш@@
inions
sor@@
georgia
grü@@
剥@@
uner@@
shi
etwa
produktions@@
tel
nic
concept
enna
eing@@
sender
certainty
brachte
strasse
beobachtung
great
ront
湾@@
qm
unter
schwarzen
voor
tically
tiker
gan@@
image
walking
seas
compulsory
water@@
β@@
country@@
reiter@@
auflösung
arznei@@
dirty
tigkeiten
haven
tigungen
behand@@
园
rechten
datenschutz
familien
ecting
street
ď
beteiligen
rail
sehr
bes
konzipiert
achtung
◙
fragte
generell
diger
diver@@
jes@@
能@@
participants
wages
größe
cane
taliban
prof.
maintaining
u.@@
abgesch@@
charging
holds
saudi
盛@@
kul@@
cadiz
caribbean
oti@@
laterooms.com
hervorragenden
wertung
emergence
gaz@@
ol@@
annex
wollten
kern@@
gewer@@
oomen-@@
powerful
zzle
av
filter@@
tter
riv@@
consequences
verwirklicht
concludes
verbreitet
friedens
decorated
esting
birgt
heimischen
director@@
。
bildungen
ff@@
schlüsse
nachzu@@
emissions
beeinflus@@
gerade@@
deterior@@
riffs@@
armee
constituency
helpf@@
カ@@
族@@
inequality
protokolls
sides
expos@@
compos@@
09
accur@@
beschä@@
acted
ängt
tones
internet@@
affecting
unterstütz@@
vision@@
needed
invali@@
österreichische
slov@@
überwachungs@@
inas
进@@
ache
pdf
populi@@
unforgettable
emen@@
acion
wirkung
zielen
hearing
英@@
mr
terrorismus@@
gebunden
车
zweimal
ዲ
calling
ech
目@@
thou
t
epis@@
ד
astro@@
vereinbarten
remained
edo
inside
grundrechte
tiven
erinner@@
einkaufs@@
fran@@
monitored
vorbild
yed
sl@@
ingung
guest
schließe
meisterschaft
determined
ζ@@
konvent
demic
smit@@
ample
vorzugehen
meet
souven@@
yes
kostengün@@
mahl@@
ķ@@
hiermit
芝@@
finds
objekt
launched
受
疗
det
turned
euer
ultim@@
ill
resear@@
ju
prosec@@
grossen
investment
las
clinton
吧
eover
stabili@@
junc@@
üblich
solve
tion@@
mixed
opfer
ungalows
significantly
krisen
schwachen
gischen
schem@@
prevention
programmier@@
andernfalls
kilometers
institutional
certified
pak@@
cad
sprü@@
laf
loan
ḫ@@
schluß@@
videos
kommuni@@
ῆ@@
preferred
gemeinschaft@@
serv@@
landen
ً
lak@@
possession
ѓ
science
widely
eindeutigen
va@@
alexander
akademie
wodurch
voy@@
enze
89
verd@@
große
receives
gruppen@@
zuge
software@@
ре@@
料
gültigkeit
tigung
tritt@@
iness
einzelne
:
sechs
besichtigen
eindeu@@
shortage
aj@@
ey
wave
inf@@
hot@@
tritt
spell
delete
chts
schweigen
protects
geänder@@
ularly
atur
hiking
gonz@@
shoul@@
eks
unable
fotograf@@
ら@@
priv@@
v.
variations
ty@@
classic
massiv
unterhaltung
teen@@
billiger
investi@@
arbeitnehmer@@
p.
sehenswürdigkeiten
inson
epage
vö@@
mittag@@
titude
超@@
ฒ@@
fristig
000
telec@@
maker
generations
so
enorm@@
tra-@@
abei
aufrufen
tradition@@
友@@
orph@@
monitoring
fourth
dust
fax@@
ir@@
clarify
ң@@
ardous
ǐ
virtu
female
erleichtert
搅@@
europä@@
erseits
suite
reifen
lug
य
sailing
höher
american
gro@@
ino
sla@@
enab@@
cit@@
上
mieden
rep@@
ffen
umes
sri
gent@@
erdo@@
terungen
doppel@@
justiz@@
stück@@
尔@@
bility
deserves
geprüft
水@@
jeg@@
alled
ausgestellt
tons
nordi@@
approxim@@
ồ@@
einzu@@
erneuerbare
isms
künstlerischen
fluß
kondi@@
advise
truly
recru@@
polic@@
ehol@@
stahl
晨@@
commissioner
punkt
atility
jas@@
macro-@@
minderheiten
dung
einnehmen
gui@@
auseinander
impulse
舞@@
orn@@
inu@@
arzt
magn@@
independence
smus
drucker
deck
nav
encrypted
frauen
onie
rechtliche
koordinierung
bud@@
school
raf@@
verletzungen
removed
os@@
coordinate
ет
joined
ን@@
ruhigen
cht
bungen
ende@@
aufkommen
ümer
reichsten
hill
investors
dangers
mögen
komm@@
thirdly
hef@@
zel@@
komplexe
genetically
sied@@
varied
esp
ausdehnung
arrest
next
museum
flughafen
gebieten
gesteuert
investing
sono
carry
room
verschieden
destroyed
sensi
dry
verzeichnis
erinnerungen
辱@@
ม
promise
tauchen
i
bü
maintains
vieles
niederländischen
gestütz@@
turen
礼@@
coa
sant@@
p
stufe
professionals
byl
心@@
schrö@@
europol
einzigen
directly
歩@@
gefahr
squar@@
gelei@@
borne
accept@@
pesti
eriert
sensible
tradi@@
umwelt-
thos
initiated
arena
nö@@
verb@@
bang@@
sibility
folio
schweiz
engere
bü@@
ums@@
proliferation
t-
manufacturer
wireless
ou@@
ägyp@@
unge@@
chains
auf@@
sign@@
hilfreich
anke
freiburg
mah@@
reis
behalf
sinnvolle
-up
integriert
circle
02.@@
könnten
mans
ated
hels@@
bourg
long@@
heutzutage
zza
blood
abulous
softwar@@
aussehen
aktiviert
無@@
rä
ehm@@
argum@@
wlan
baut
198@@
cache
fällige
terne
ق@@
gastfreundschaft
ourable
문@@
aid@@
tä
zukünftig
municip@@
fees
lis
prozesses
relax
certain
asso
betru@@
begleitet
suggest@@
define
connection
ŭ@@
sport@@
com@@
discount
chter@@
competitors
printer
mangel@@
letting
ǐ@@
pages
applikationen
geschätzt
rewar@@
package
decre@@
darfur
incorrec@@
者@@
eingetreten
amid
verkehr
werter
留@@
trä@@
inn@@
orca
blog@@
ื@@
falls
kes
rücksicht
ki
schönen
profes@@
england
würdigen
ôtel
bath
saubere
bew@@
ences
3-star
cp
glan@@
meilen
christus
mation
serve
scale
philosoph@@
unknow@@
exemplary
gewachsen
2011
absol@@
staatlicher
linder
herb@@
dark
230
fizierten
besser@@
milch@@
sämtlichen
chung
kers
citizen
every@@
gekl@@
yu@@
transition
135
techn@@
rückt
dic@@
interessen
innovationen
led
fashi@@
arch@@
protocols
just@@
four@@
vul@@
remains
traffic
cky
atten
応@@
got@@
kurzem
komfortable
ergänzt
ze@@
marina
verhaftet
königrei@@
enswür@@
äus@@
х
ürk@@
free
ding
inely
情@@
säu@@
präsen@@
soil
fi
verwirklichung
গ
fischer
mitgliedstaaten
pover@@
breakfast
መ@@
澄
family
verschiedene
swi@@
ehmen
cooperation
ў@@
sortiment
gim@@
playing
informationsaustausch
단@@
bio@@
pha
tastefully
kontrolle
ſ
sprach@@
drinks
power@@
幹@@
donner@@
conclusions
automatically
enness
律@@
mauern
support
gefühle
ж
choice
經
fällt
lifetime
ladi@@
therapeutic
jene
cca
stellungnahmen
brüder
governance
omed
geschäftsführer
dorf@@
generalsekre@@
trac@@
chile
lav
eili@@
bsd
cultivation
dev@@
advised
gebern
americans
expect
toff@@
esi@@
gebildet
determination
trip
ften
überall
premier@@
手
obli@@
beschäftigungs@@
mers
norms
vergessen
orrow
translate
ま@@
quali@@
deposit
!
neuigkeiten
readily
ople
aussage
america
jahre
fleet
behauptet
problem
exquisite
lichsten
dav@@
far@@
gäste
erfordernisse
ит@@
katastrophen
ök@@
klassische
0.@@
auto
servic@@
kongress
last@@
normen
automatisch
levels
伯@@
äu
akan
为@@
approved
enkt
hai@@
ko
ɫ@@
andererseits
spezielle
achten
sterben
betreuung
letztes
beer
kümmern
umgeb@@
hi@@
überschreiten
sensor
anbau
datei
rung
his@@
hab
pleased
模@@
remote
ellers
omas
mé@@
ш
eag@@
jeweils
theat@@
saint-@@
monten@@
ones
flexibler
joh
nahm
kinder
grundsatz
realization
lassen
iceland
allein
forcing
mechanis@@
differ@@
vari@@
closed
multitude
eute
100
ml
anlässlich
fox
committed
mitarbeiter@@
website
nro
揃@@
esenen
umfrage
त
description
politik
südti@@
stellen
füßen
noon
ansehen
loud
请
manager
thodo@@
jahren
rescue
cast@@
nowadays
♂
schock@@
1979
dependency
row
terrible
hall
nov@@
aum
krem@@
fläche
nichtrau@@
windows-@@
beijing
calendar
intern@@
castles
obwohl
zoo
pse
unterschiede
ġ@@
서@@
fer@@
nitt@@
voluntary
massiven
profession@@
jetzigen
entfernten
illed
implementing
ω@@
unications
quoten
archives
gen
bahnhof
chri@@
eft
indicated
retreat
kel
consciousness
inher@@
distinctive
self-@@
aber@@
■
accident
glücklich
zufrieden
zehn@@
schaff@@
zugeschnitten
demnächst
路
mussten
木
fahrens@@
হ@@
gesamm@@
carri@@
thorough
papier
tudes
existieren
wechseln
angezeigt
hair@@
wegen
besucher@@
identity
đ
verwendung
category
zuverlässige
je
climbing
policy
direkt
une
event
gekauft
intergovernmental
figuration
see
g8
seine
ŕ@@
organisations
合
mord@@
bow
ligen
trend@@
ச@@
versteht
heidelberg
setzung
bevor@@
ectively
wien
kön@@
월
total
asing
wol@@
continues
ado@@
quot@@
ŋ@@
outcome
hier
usses
bloß
ori@@
adoption
astri@@
crist@@
des
vielfalt
cut@@
ά@@
ado
anc@@
บ
problem@@
erzi@@
angabe
钦
ausgezeich@@
括@@
zurich
ehre
儀
佐@@
taking
trav@@
james
fres@@
bestimmte
wellness-@@
deutlich
erheb@@
meint
aux
ères
stärkt
herbei@@
bi
shed
lte
gau@@
haftung
published
mobil@@
schaf@@
cany@@
desirable
sol@@
vermu@@
hon@@
amento
keeps
九@@
andreas
automobilindustrie
memory
principal
übersetzer
compli@@
katho@@
steve
privi@@
befreit
höhen
turnier
false
housing
contrast
belief@@
verantwortung
methodology
nüt@@
hom@@
最@@
replac@@
discre@@
uis
dden@@
atisi@@
übernachtung
utes
ward
ping
auftrag
hay@@
lack@@
mech@@
wärme@@
seen
zusammengefasst
lots
ehen
checking
castle
immen@@
ʃ
gemeinschaftsrechts
athan
mead@@
arta
beg@@
song
字@@
verschieben
stayed
inspections
ority
stammt
má@@
olle
mu@@
acken
티@@
pir@@
gegebenen
applies
ever-@@
nutzt
hast
george
park
en.@@
wechslungs@@
journalist
collect
persistent
canal
broch@@
ダ
suu
firm
angebo@@
aba
zin@@
essi@@
peoples
zurück
seas@@
ِ
offic@@
า
siehe
loun@@
länder
scot@@
new
teilt
lauf
hem@@
pakete
pyren@@
sequent
corporation
ston
ś@@
portable
mitwirkung
keinem
vorn
größeren
hosp@@
portion
℃
♦
ereignissen
fastest
decent
wör@@
inen@@
aller@@
voranzutreiben
ektionen
kopf@@
vorne
karel
auswählen
砂@@
nischen
archä@@
exter@@
exzell@@
elf
haupts@@
乎@@
茶@@
rechtlich
wars
sil@@
cr@@
öst@@
trendy
boh@@
croatian
vorgang
properties
propos@@
sharp
és
asen
welcom@@
schlafzimmer
zurückgreifen
zahlt
eintrittsk@@
fin@@
character@@
komplett@@
vermögen
later
sätzen
eat
ennung
slope
sul@@
patient
め@@
errichten
onment
cur@@
a-
担@@
ig@@
anspru@@
issu
erity
aders
begrü@@
künst@@
gänge
̃
dial
catch
wären
bereichs
白
bev
vice-@@
中@@
kast@@
supplies
möglicher
ena
zagreb
starten
medic@@
duc
luß@@
lehen
rie@@
难@@
learn
schnitte
styles
机@@
burgh
olf
omen
weather
anymore
herauszu@@
dominant
kam@@
verkehrsmittel
indischen
landscape
言
sclub
regulierung
holder
agrees
cum@@
bildet
adem@@
inner@@
mond
externe
hinterlassen
bangemann
bekämpft
foli@@
bri@@
einblick
cancel
buch
際@@
genutzt
surfing
ink
tizen
georgi@@
zusätz@@
putting
quiet
kooperation
escap@@
vermut@@
brea@@
fluggesellschaft
etz
vir@@
cambo@@
texas
extreme
inappropriate
welle
스@@
banquet
nien
abled
chianti
italian
vollständige
läss@@
í
bekämpfung
ino@@
气@@
क@@
donald
überprüft
enses
wake
wissenschaftlichen
verwöh@@
updating
blicken
头@@
gratitude
itt
\
combating
info
einwände
anticipated
fällen
tery
zeitplan
ktions@@
libanon
aning
bund@@
fil@@
☺
fai@@
worten
strategische
照@@
norweg@@
ssig
wall
incredi@@
spruch
croati@@
confused
ändern
beispiele
ljub@@
geschwindigkeit
bean
sonst
album
gewährleistet
seb@@
teilungen
corporations
weiterer
erleben
cl@@
studieren
upload
economies
渋@@
gaben
verordnung
カ
siena
embedded
genauer
hum@@
fred
els
zauber
night
az@@
dol@@
lifestyle
...
beglück@@
stanti@@
χ
too
senti@@
delivery
schwierig
informiert
landes@@
paypal
ε
client
spielt
fü@@
ankommt
rules
て
vitorino
lake
geh
g
cross
commodi@@
logik
terns
managed
dient
friedliche
徽
expan@@
cru
ola
meanwhile
gestrigen
ehenden
labview
stoppen
ี@@
parlamentarischen
red
entrepreneurs
freuen
gelangen
glass
reflects
1980s
organising
erstmals
newsletter
implications
ignor@@
ough
verbindungen
lagern
dek@@
msn
mount
verkörper@@
solle
whirlpool
französisch
anyway
lagen
journalisten
飼@@
prei@@
konzentriert
contract
schokolade
formul@@
thereof
um-@@
card
größten
magic
vollständigen
legen
lul@@
persons
evolution
istri@@
r@@
questions
unstable
brechen
plant
äm@@
ree
項
residenz
condi@@
dat
energies@@
mache
stimul@@
genöss@@
pm@@
wis
genügt
location
fortunately
macro@@
chris
cm@@
personal
abgesehen
mutz@@
progno@@
ologies
los@@
urban
offenkundig
kommens
题@@
representatives
innovation
japanese
transi@@
bmw
部
doesn
tivities
taxi
erfolgs@@
appro@@
dienstag
zügigkeit
germany
geistigen
arbeiten
cra@@
angenommen
gender
ped
ult@@
庫@@
berechtigung
eal
äf@@
ā@@
13
restrik@@
desto
größerer
fei@@
sert
heit
if@@
versprechen
linien
lasten
opes
goo@@
gt
sig@@
assume
beste
bewertungen
sharp@@
tabak@@
ziffer
heavy
italien@@
russland
obs
voraussetzungen
散@@
smooth@@
zeits@@
fav@@
proced@@
polish
repair
erne
bathroom
claim@@
euerung
sett@@
stabilitäts@@
√
48
coloured
ア@@
0.000
check-@@
delays
beschließen
ern
aufgebaut
aggressive
ট
trading
gericht@@
suggestion
understanding
electro@@
unity
domin@@
eigenen
restri@@
lived
enting
controll@@
steil@@
blind
giov@@
democracies
de
ټ@@
lor
hinblick
lars
spitz@@
möbel
äten
gerechte
weiße
arbeitnehmer
youtube
somebody
gues
adopt
verschied@@
abschaffung
gegenteil
brei
kapital
verfolgung
40@@
moskau
ther@@
成@@
reihenfolge
gewach@@
cut
connect
edel@@
wohnungs@@
jus@@
obligator@@
obst
erfasst
sr@@
银@@
otto
μ
wasch@@
entdecken
discovered
energiet@@
geschlossen
uld
anese
folg
ases
kopf
somewhere
zunehmend
ск
erledigt
versuche
unterdrückung
signature
raff@@
halbinsel
kev@@
wunderbare
feh@@
definitely
vegetables
igung
angewand@@
wiederauf@@
beln
anno@@
renov@@
krank@@
whi
ez@@
bedrohungen
abili@@
xi@@
ult
straßen@@
foremost
amerikas
”
frankreichs
lawyers
standor@@
flughäfen
regierungs@@
陈@@
abel
robust
input
rechts
upgraded
ritten
chmal
frank@@
transparency
medizin
dut@@
isco
criteria
ographie
back
graph@@
mechanisms
gur@@
hoffnung
ợ
switch
bedeutenden
whe@@
comfortably
weitem
u@@
gener@@
erhielten
verpack@@
mostly
women
beeinträchtigt
vereint
mailand
acht
mitig@@
wenigstens
vising
haltenen
ɑ@@
erfahr@@
echtzeit
balkan@@
uru@@
eillance
schung
ita
sson
optimize
ied@@
tanks
drück@@
parli@@
guantánamo
84
cial
landschaft
verbindung
sonnen@@
foot@@
wikic@@
ernd
atmosphere
ologisch
reflect
ling@@
student@@
stechnik
fitted
commerci@@
wahl@@
exception
ats
anced
ombudsman
digt
angs@@
schätze
pfer@@
kling@@
every
audiovisual
terin
leaves
transferred
artikeln
quired
wäldern
eventu@@
gl@@
shores
originally
einzeln
unc@@
stress
business-@@
land-@@
executive
市
kommunikation
vá@@
activated
rati@@
luxuri@@
tomorrow
sekret@@
伊@@
szen@@
enteil
zweites
mouth
imposing
vin@@
finanzierungs@@
traff@@
club
world-@@
ffern
withdrawal
ascript
yssen@@
ursprünglich
motivated
flexibel
bestandteil
greift
sar@@
türkischen
beantragt
portugiesischen
vorgän@@
gesprächen
respond
ausgab@@
kulturelle
herbst
demokratie
schl@@
1.1
severe
seh@@
bildung
hört
販@@
worry
duction
slow@@
layers
umsetzen
conduct
ingredi@@
bles
konzip@@
heimer
drei@@
funden
岐@@
statement
arbeiter@@
cht@@
ゥ@@
remain@@
alls
jo
tension
karten
lieferungen
founded
u.
solidar@@
ingt
außerdem
liz@@
cohesion
endere
appe@@
ces
liberal
travellers
endar
doppelbett
eded
rica
trennung
4-star
mir@@
eke@@
aches
umfassende
phänom@@
tibetan
alz@@
hear@@
software-@@
ѕ@@
mitglieder
kak@@
祿@@
gepäck
leitung
verweisen
transatlantic
rs
philos@@
umgeben
bluet@@
angekün@@
guine@@
ora
behalten
kim
adop@@
panoramic
kalifornien
thers
trace
mitt@@
ord
strand@@
venedig
horizontal
六
broadcasting
anza
bilanz
de@@
accus@@
love
communic@@
ahe
anzupassen
implementation
taxes
ong
谢@@
selb@@
tätigkeits@@
wissen@@
geni@@
뀌@@
ќ
eff@@
scheu@@
printed
etal
ty-@@
hunde
hänge
fted
adas
‏
ier@@
bestell@@
tival
听@@
bavaria
э@@
case
killing
bets
chill
consult
genz@@
wann
icro@@
gern
überwinden
heruntergeladen
kan
adverti@@
kel@@
h@@
maschine
web@@
rik
illi
vermieten
itly
multilater@@
oktober
beschluss
friedlichen
sparteien
default
weltkrieg@@
besetzung
kr@@
confirms
lot@@
beeindruck@@
eintreten
尘@@
spite
ŵ@@
stärkeren
addres@@
dell
赵@@
encouraged
emo@@
traums
strip
einschränkung
europäische
ş
appreciation
vos
all-@@
speaker
bing
regelmäß@@
foc@@
5th
edges
龙@@
9,@@
ĵ
geraten
enthusi@@
gaming
ː
ო
gewo@@
source
cos
turni@@
externen
strateg@@
dungs@@
l
seele
credited
pakistan
wohlbefinden
breast
ocol@@
cheaper
sek@@
bedeutet
kategorien
elba
ṛ
crystal
♥
ofes
ages
parlaments
kri@@
ades
loo@@
konkreten
tanz
austr@@
tliche
runden
regulating
1958
fujifilm
alise
oase
ungsverfahren
halt
linz
duplic@@
zigen
aktien@@
geräum@@
ailed
natur@@
walks
stürzen
exhi@@
formulieren
citizenship
sovereign@@
ßen
ger
ḥ
venture
alisierungen
feels
თ@@
media
tional
größere
庁
rettungs@@
incoming
デ@@
↔
roth@@
ĩ@@
schend
manufacturing
lindustrie
flour@@
uer
obligation
konsens
ang
law@@
05
cian
gratuli@@
workshops
judgment
gehol@@
umgekehrt
reisende
cav
ühlen
cy@@
recher@@
sp
gegrün@@
anschauen
househol@@
priv
universitäten
arres@@
network
äck@@
könig
existence
factories
belegen
lama
negativen
erfreut
liegt
intimate
tig@@
flori@@
п@@
strukturelle
16.@@
menschenrechte
werke
mäd@@
meil@@
chosen
meat
großbritannien
branche
beruf@@
tled
出@@
occasionally
suggest
häu@@
vague
starken
ness@@
ausgewählte
mb@@
participant
onen
fällig
achtungs@@
aussichten
rov@@
efore
start@@
体@@
china
reihe
wissenschafts@@
geltung
arbeitet
porter
sektoren
colonial
mg
bungalows
lamps
sevilla
duktion
auer@@
straf@@
daten
single-@@
leister
bewirken
developers
kapitel
relaxing
cion@@
risks
hinaus
grain
stände
crete
satisfied
sanit@@
flä@@
productivity
wehr@@
stu@@
traum
oning
fähigkeiten
gegenüber@@
objectives
sollen
enjoy@@
-b@@
technisch
dieren
higher
eda
bolkestein
partner@@
serving
endless
frankreich
zeichnet
◦
ultin@@
;
dvd
zusammenbruch
yellow
pped
func@@
heb@@
changes
india
ל
umgehend
kategorie
ত
anteil
discovering
section
and
ökonomische
etto
präsent@@
leon@@
menüs
tually
aufenth@@
eful@@
4.@@
immigrants
was@@
studierte
de-@@
fairly
erlei
tick
flow
zun@@
reporting
pc@@
alpen@@
set@@
daher
factor
observations
worse
acher
involved
anerkennung
ν
carl
cipl@@
karriere
zen@@
neighborhood
aking
bestätigt
riffs
zusammenzuarbeiten
会@@
nehm@@
嘉@@
kei@@
schlag
niederländische
südameri@@
haben
angewandt
za
130
übergeben
facebook
popul@@
reiche
redundant
public-@@
ves@@
weilen
unforget@@
nier
monate
physical
kyoto-@@
bedroh@@
feasible
gs@@
equ@@
drew
einkommen
iern
pragm@@
pcs
momentan
psy@@
cattle
urge
kol@@
transparenz
lern@@
unruhi@@
basque
temperat@@
invasion
einheitliche
bestätigen
rohstoff@@
⋅
shorter
ammens@@
übertragung
beider
ña
bürgerrechte
mischung
aktuell
istan@@
weeks
doppelten
identi@@
pension@@
investieren
masse
options
kinderbetreuung
bian
loc@@
besu@@
durchgeführt
utions
warnung
27@@
ule
eigh@@
med
ne@@
є
gebo@@
vinc@@
stimm@@
tinu
mountains
exports
fulfilled
rever@@
ermittelt
urlaub
ко@@
luß
exceptional
fte
stimme
biom@@
august
ም@@
s.a.
ː@@
verlangen
ǔ@@
nations
dire@@
plötzlich
gewissen
inev@@
intention
volk
spiegeln
residen@@
elle
nfalls
politisch
ingredients
passed
abstra@@
vements
pupils
gesper@@
lands
27
gnen
marco
position
erober@@
deposi@@
gess@@
ersten
wording
ret@@
reb@@
odds
stücken
some@@
tolle
cadi@@
confirmation
ks
hinzufügen
selling
restored
frankfurter
twelve
lat@@
eigenes
u.s.
ssl
zeh@@
basiert
巧@@
class@@
facili@@
legal
cent
荣@@
parks
alts@@
achievements
ände
aufbau@@
alle@@
24.@@
storni@@
möglichkeiten
vermittlung
schreib@@
erholsamen
rolle
わ
obtaining
wonderful
anbindung
useum
ă@@
diesjährigen
π@@
schritten
د@@
ao
essors
biotechnologie
unverzicht@@
逃@@
traditionen
mü
frühstück
unes@@
frist
einrichtungen
schlägt
illu@@
teach
vorangegangenen
报
thanks
scan
ving
₴
einmalige
教@@
alicante
1993
korrektur@@
gelöscht
stretch
sprecher
wwu
ausmaß

integrating
nis@@
cold
cream
renomm@@
vors
ategorie
nachfolgenden
räume
verfüg@@
augen@@
aufer@@
倒@@
names
document
presse
tho@@
conducted
race
gliche
inary
ativen
bewältigen
nachhaltigen
broadcast
beachten
ent@@
teaching
materi
story
favourable

decided
pressive
leihen
ae
ज@@
artikels
ehow
out
fasst
asyl
nächste
supreme
abbau
entscheidend
counts
zy
niedrige
aufpreis
etern
german@@
university
stens
éri@@
原@@
letter
subject
arming
enken
gängen
gesorgt
labour
cri
ski
ating
mozart
unterricht
rup@@
sufficiently
spiri
sum@@
klares
major
measures
rates
io@@
ý
ิ@@
electoral
rennen
evaluated
kernel
kanäle
sexu@@
besit@@
汉@@
aufgefordert
acqu
arten
ecb
verdient
sym@@
site
amendment
all
kaffee
passt
konsum
aher
sam@@
efforts
gegründet
cow
excel
相@@
verblei@@
minal
kolleginnen
jahrestag
横@@
öhnung
grav@@
gend
tries
ranging
integrität
2013
ar
minibar
zeln
four-@@
raffin@@
thous@@
home@@
um
م
annäh@@
ű
verfasst
manship
amkeit
存@@
radisson
namens
somalia
wärts
tt@@
akzept@@
grades
wife
arbeitsplatz
beding@@
∴
direction
ember
genie@@
続@@
israelis
aufhin
έ
fass@@
senz
risiko@@
attered
regier@@
quer@@
test
exceed@@
emplo@@
usage
云@@
tatsachen
festen
aging
subsequently
rooted
mandri@@
centro
gene
slideshows
kompromis@@
anzei@@
efer@@
kler
北
consec@@
ranks
betreut
parallel
ari
cerem@@
composed
elements
-and-@@
celebr@@
abetes
eches
parlament@@
ästhe@@
become
wav
konkurrenz
ufer
vereinbaren
organs
tec@@
ausland
lish@@
copied
beauftragten
殊@@
ls@@
mming@@
sey
indic@@
äsche
abendessen
capable
ags
egu@@
ishment
oldest
languages
cooking
empfin@@
superb
gespielt
ジ@@
provinz
orie
ehemaligen
nochmals
pec@@
tnis
夕@@
assess
erstreckt
ausgeweitet
domains
tise
supplier
grei
incorporate
ons
socially
compete
vergeben
scheinen
hole
ower
ザ@@
surfen
plat@@
stärkere
makers
ector
bits
ress
strikt
tung
beibehaltung
ě
mittlung
gehand@@
instrument@@
konzentration
musi
fahrzeugen
reding
regulations
condition
christop@@
eventuelle
verlu@@
115
krisen@@
gang@@
konstitu@@
kleineren
prostitution
•
ahrt
reservierung
gesagt
the@@
nag@@
sarkozy
situations
twi@@
torate
advis@@
bathrooms
einbindung
inien
ographi@@
willkommen
ded
ambitions
spra@@
freit
ories
jan
23
tories
nes
mind
speed
sad
ő
zurzeit
・
abilität
liechtenstein
teu@@
kno@@
fuß
multimedia
bereitschaft
benutzer
solide
obligatory
proximity
д@@
lays
aves
wes@@
explosion
liberties
tet
potentially
direkter
ßt
schlim@@
提@@
ling
jek@@
pling
摇@@
deplo@@
diesel
1.2
revision
属@@
pra@@
alp@@
bolkest@@
到@@
neuse@@
fc
sover@@
estens
angola
ु
pom@@
jahreszeit
ssige
ically
ero
we
김@@
bühne
ざ@@
whatsoever
ongside
ambi
festplatte
zeitigen
sudan
voraus@@
ehrt
mangelnde
manip@@
sequ@@
mixing
eme
infrastructure
~
langem
polit@@
legt
castell@@
by
fen@@
regard
委@@
milano
otyp@@
adventure
lav@@
rän@@
evi
strafre@@
gerne
cancellation
obersten
ени@@
langjährigen
asmus
帝
unmöglich
bit
gericht
monaco
答
gesprochen
ammer
erstellt
clari@@
technologie
versal
chy
pflegen
ssiers
hochrangi@@
erweiterten
streit
lägt
guided
versamm@@
near@@
alismus
erlebnis@@
2003
fier
anda
versand@@
ธ@@
näh@@
profi
refri@@
exek@@
ermu@@
tioning
höhepunkt
伝@@
regisse@@
schö@@
assu@@
tender
währung
solved
ichts
板
wisdom
ڬ@@
roy@@
führende
0s
laur@@
gangs@@
sta
katastro@@
tionally
chemischen
stylish
öffentliche
グ
baroness
göteb@@
ぢ
indones@@
rea
s.com
wellness
gesamt@@
fear@@
理
big@@
hergestellt
sekre@@
discipl@@
huge
uba
a.com
unfor@@
scientific
xes
ysteme
contributing
goals
herman
ama
univer@@
interest
genannten
fan@@
force
owns
indern
ängen
introduction
ವ@@
始@@
concentr@@
extent
๑
fan
ernde
battery
leg
-sterne-@@
kompromiß
jk
lawyer
offenbar
richter
prosperity
erende
sieht
pfung
außergewöhnlichen
exklusi@@
another
composer
fotokopier@@
erkrank@@
galt
übersch@@
milli
vertiefen
ç@@
hängi@@
eingeb@@
competi@@
ico
perspektiven
ventive
hills
kennzeichnung
geschäft
diglich
perspek@@
ausblick
salon
sustain@@
nob@@
our
lessons
house
saison
katalog
letztlich
vereinbar
rs@@
taxpay@@
indication
র@@
akes
inhalt
doctors
belgium
gärten
guilty
einsei@@
grave
ordinary
verpflichtet
smo@@
straße
irre@@
traditionellen
occup@@
vacuum
numerous
zeigten
leichte
stating
fertigen
erreichung
pf@@
resol@@
high@@
range
ferienwohnungen
hö@@
dou@@
fine
nationalpark
sitz@@
gemäß
carlo
ordentlich
verlängert
etwa@@
ment-@@
thrown
disclos@@
liziert
verschle@@
es@@
mobiltelef@@
fut@@
negligence
reserve
keits@@
kongress@@
ausgabe
israels
sever@@
ablehnung
unglaublich
vergabe
discover
wandel
bond
foreign
slovak
fünfzehn
aires
conferences
para@@
vertik@@
1900
anspruch
mer@@
neuesten
uliert
finn@@
bünd@@
empha@@
abstimmen
sections
besetz@@
dr
infringement
konkreter
bieter
just
activity
cod
michel
leucht@@
elektronik@@
aufgabe
換@@
verwalten
consistency
kolleg@@
bub@@
lug@@
皇
stockhol@@
design@@
э
oppel@@
record@@
minu@@
sessions
priorities
utable
rede
erzeugen
zukommen
ticism
criteri
optimistic
sichten
ө@@
anas
vermö@@
ministerium
cour@@
carol@@
struktur
gleichbehandlung
guar@@
elektron@@
comfort
cheese
esst
kostenlose
brigh@@
java@@
arrival
außergewöhn@@
temporarily
verantwor@@
rati
tree
pflanzen
lev
rescu
eness
variablen
pharm@@
quar@@
stances
quite
webseite
iedelt
offering
purchaser
starb
draft
–
gegenwart
γ
●
inien@@
mo
declaration
insight
土
infrastruktur
vo@@
meerblick
jenseits
krankheiten
initial
sends
rist@@
bewährten
idealer
--@@
ulen
depen@@
scenic
views
bs
photograph@@
kis@@
解@@
designated
expo
oba
allgemein
liv@@
solidi@@
dienste
shutt@@
verletz@@
preme
safely
negotiate
dans
gran@@
forecasts
boats
gibt
dice
verhaltenskodex
weg@@
stahl@@
kov@@
cils
1950@@
vern
ole
tochter
verkaufs@@
conc@@
lebensmittel@@
kuli@@
wirtschaft
assass@@
ூ@@
gkeit
kirchen
roma-@@
allo@@
merchan@@
leg@@
ț@@
lower@@
golf@@
lac@@
kos
neut@@
eit@@
mains
co2-@@
य@@
concern
everybody
yam@@
genannte
erstklassi@@
vents
urt
eis
jerusalem
gram
heili
ome
nachrichten
practical
executed
schiffs@@
castro
actual
pression
fragi@@
dose
messen
translations
plann@@
lex
rotter@@
singapore
sitting
echni@@
hindu
zt
rounded
janu@@
kern
visual
course
speicherung
province
beauty
ool
us-@@
serie
agricultural
sched@@
hu@@
iranian
entlastung
schaftsp@@
ably
your@@
milli@@
afri
rechtsvorschriften
caution
period
quantit@@
visa
assumes
frank
hard
employment
entieren
anten
revolutionary
ght@@
ghs
bas@@
technischen
organen
analysiert
geable
gerichte
wär@@
ፈ
chf
ø@@
gible
nikol@@
啦@@
exact
36@@
sauber
cyber@@
htt@@
enes
kontinu@@
assi
amerikanische
versi
luggage
स
refra@@
schafft
convergence
einnahmen
onds
vertrages
belong@@
dial@@
incap@@
从@@
zwei
bestimmten
dagegen
bos@@
verwal@@
慢@@
planned
沈@@
lanzarote
increased
exclusive
policy@@
sinn@@
ommene
挡@@
lieb@@
amerikanischer
ursache
fassen
※
ers@@
becoming
tischem
chens
lien
thly
tagung
nicht@@
polite
included
gewässer
lin@@
historical
berichterstat@@
chem
visiting
print
posi
coast@@
bution
iner@@
geld
verbindet
800@@
63
took
gelangt
josef
ellen
stellbar
nette
laying
ausgedeh@@
zyper@@
behandelt
子@@
调@@
schwar@@
unterschied@@
waiting
dichte
ڠ@@
geplanten
roman
kommiss@@
eden
brach
own@@
へ
sti
einhalten
wirtschaftlicher
nö
fenster
ongoing
igt
patente
justified
fifteen
nte
exis@@
amm
rou@@
party
indicators
umfassenden
christmas
demonstrations
div@@
¬
reisen
functioning
wieweit
ெ@@
1967
länder@@
outer@@
1.5
egr@@
defizit
beein@@
experiments
astery
immobili
orders
voting
gesetzgeber
presidents
ammlung
buch@@
angehört
veg@@
ordnete
laptop
banned
symp@@
spam
ζ
wood
blame
als
ve
zeug
erwägung
cultiv@@
reviewed
breeding
ños
topical
gesprä@@
arbeitsplätzen
fri
web
schulden@@
ausgezeichneten
worker
illegaler
pocket
nde
combination
percent
athens
2015
betriebssystem
wikitravel-@@
geregelt
vati@@
jener
einfacher
destructive
stellte
activi@@
gases
tern@@
guter
praktisch
enti@@
雪@@
zusammenarbeit
阿@@
get
professionalism
ani@@
claimed
schä@@
uts
hn
bringing
anpass@@
ي@@
traces
odes
visible
gladly
modul
pollution
concep@@
project
信@@
opinions
alisierte
urer
ct
jarzembowski
inclu
unterschied
punkten
weber
72
cease
prinzipien
ups
artist
eingerichtete
sprung
持@@
environmentally
wunsch
johannesburg
ennen
bleiben
direkt@@
milose@@
ered
fahrzeug
famili@@
temporary
namentlich
sern
metern
pic@@
revolution@@
priced
sches
christi@@
zwischen
touch
showed
ч
reagiert
lens
han
ickt
üben
syn@@
！
interessanten
presentations
niedrig
flich
ea
vable
reas@@
spiegelt
20@@
ly
sprit@@
verbesserte
stattfin@@
klarheit
l-@@
midst
landwirten
informellen
isi@@
alog@@
streitigkeiten
contra@@
active
ativ
beantwor@@
reliable
cant@@
zimmern
cells
importantly
fugen
trags
bequemen
针@@
technical
u-@@
kontinent@@
eu@@
gh
getr@@
er-
cosme@@
nutzen
displayed
λ@@
statistik
commitments
ited
himm@@
eln
stützt
kit@@
kaner
film@@
ра@@
1969
፣
zustand
stattfindet
balances
gerechtfertigt
scen@@
person
12th
entdeckte
traditions
谷@@
registrieren
busin@@
vulnerability
commit
ग@@
parlamente
consolidation
preferences
tless
reibungs@@
versetzt
am@@
compon@@
österreich@@
azi@@
andalu@@
get@@
tliches
enge
meister
verwiesen
viet@@
economists
though
⇒
mies
beschlüsse
miles
prepar@@
prosperous
ück
liberty
guidance
1948
gedanke
tigste
harm@@
difficult
national
derzeit
gemeinde
territ@@
youth
conversation
ime
assum@@
schulden
tsp@@
energieeffizienz
formulated
这
bitten
principles
ins@@
acute
rasche
wochenende
paradies
militär@@
hochwer@@
sup@@
ibm
bestanden
deren
ering
notion
erhäl@@
concerned
teure
billion
vidu@@
gipf@@
stä@@
verordnungen
ش@@
ameter
臺@@
itten
captured
beit
einzelpersonen
rohstoffe
recep@@
gewinn
recogni@@
mes
inc
2,@@
wiegend
treat@@
②
etwas
40-@@
weapons
fusion
pa@@
grundlegenden
herren
敏@@
101
late
besorgnis
delta
phal@@
mitglied@@
-european
ат@@
appeared
ip-@@
steil
sewhere
sunday
nahme@@
forti@@
africa
guatemala
wron@@
erholung
consoli
fertigungs@@
likely
fun@@
mangelt
tions@@
gremien
metall@@
krei@@
ectors
nu@@
決@@
germans
brain
banken@@
geschieht
swe@@
entschied
rhein@@
proc@@
lob
家
pflanz@@
having
kat@@
gebrachten
hinten
aff@@
difference
devi
over
pel@@
schöne
lakes
ase@@
bin
prüft
black@@
guides
öko@@
abschnitt
sz@@

nav@@
hypo@@
head@@
stechnologie
excuse
arrangements
12.@@
markt@@
enced
ansä@@
wagen
gemeinden
destroy
arab@@
gaps
neys
dadurch
ezb
abu@@
probably
erg@@
inspection
server@@
parkplatz
äuse
eröffnen
kenne
righ@@
aufs
koll
errasse
did
sel
freiwilligen
verbin@@
modernis@@
compar@@
partners
í@@
archit@@
vic@@
tagen

via
go
siert
ዓ@@
finanziert
national@@
übersehen
啦
glück
gig
verlag@@
friendly
pop@@
к
flüge
unt
damp@@
encounter
mitarbei@@
reduce
丸
trägen
gm
vernun@@
gegensatz
ships
ausmacht
grosse
schriftlichen
erklär@@
ure
doppelzimmer
benutzt
eröffnete
teachers
leder@@
supplement
gastronom@@
kurzen
lum@@
springs
illumin@@
elektronische
arios
äußerster
bili@@
gerichten
れ@@
ли@@
optimized
d
oot
¸
landwirtschaft
touristischen
弄@@
theore@@
enn
ò
olo
threatening
wissens
fel@@
vin
career
haupt@@
engagieren
sourc@@
schir@@
sahen
lizi@@
anx@@
18.@@
farm
ungel@@
voran
auto@@
tab@@
shin@@
skla@@
akia
stu
influenced
schalten
inian
onymous
lom@@
esen@@
temperatur
vorlage
lings
ules
untersch@@
pursu@@
internationally
scar
arier
tiers
beobachten
reland
so-@@
sä
countries
noted
ograph@@
konzepte
clean@@
丘@@
affairs
nisses
task
auf
waves
sant
beglückwünsche
hongkon@@
guiding
dos
manage
gehe
aspect
encouraging
beleu@@
ruling
spiel@@
guitar
ე@@
hong
ström
verschieden@@
ausreichen
perspectives
accomodation
betonen
ph
refer
aussicht
wohnsitz
opf@@
demo@@
essel
stoffe
oll
哈@@
aspir@@
unum@@
休@@
heimat
umn
tiles
ou
atile
establishes
christoph
过@@
additional
ป@@
expressions
布
sonn@@
tained
plac
official
转@@
spartn@@
wünschenswert
jump
sauber@@
replaced
wunsch@@
eck
norm@@
steigern
dramatic
entf@@
invest@@
preview
venues
accomplished
flights
disk
mach@@
ū
operation@@
medina
with
bay@@
das
inspiriert
patten
organisierte
shand@@
flüssi@@
tariff
st-@@
gewaltige
alpen
sentences
capitalism
liation
ziel
uxe
iss
renewed
ining
compensate
ologischer
scenarios
seid
verantwortungs@@
gnet
baron@@
realisierung
realisieren
col
zeigen
side
..
◈
repercussions
stra
fragen
dauer@@
minor
fight
forming
stab@@
訓@@
identi
bul@@
表@@
ち
30-@@
zo@@
ư@@
zuhause
scrat@@
montre@@
comitology
führungen
procedures
ierter
briefly
moun@@
ental
却@@
cany
checks
க@@
packaging
semi@@
erter
verleiht
chterung
拼@@
operational
51
incredible
dische
dal
ready
urlauber
minority
wahrscheinlich
schnitt
fo@@
access@@
dog
key
wertvolle
säule
व@@
geograf@@
continuity
1998
ather
andern
多@@
unterwegs
sheep
santer
dup@@
mall@@
ⰶ
fehler
xl@@
drop
capp@@
getestet
anwen@@
incen@@
9@@
ork
hosted
spezifischer
gol@@
erle@@
お@@
weiteren
╩
soci@@
ceas@@
deed
unternehmer
kamp@@
hälfte
billigen
nor@@
assungen
dine
fundi@@
里@@
caus@@
thessaloni@@
bestände
20.@@
tonn@@
gegenstand
zusch@@
square
schneller
beinahe
issue
laeken
tarifa
großer
豊@@
rechts@@
gegens@@
instant
ა
log
günstig
üblichen
tenn@@
institutionelle
estim@@
acceptable
konfiguration
ry@@
enter
he@@
в@@
fish
prinzip
pur@@
kommt
lett@@
faith
ュ@@
food
puerto
for
ghout
betragen
lock
込@@
exercise
ently
cover
obstacles
hintergrund@@
einsch@@
supposedly
grupp@@
deleg@@
experimental
specially
eig@@
dalmati@@
bespre@@
umstand
oben
hoc
bezirk
singapur
willing@@
cambridge
entre
präsidentin
answer
erwartet
ined
außenpolitik
verbringen
rowing
ulieren
angeb@@
screens
numer@@
吉@@
54
gehoben
heat
anzeigen
haar@@
reiber
convic@@
contin@@
clicking
gains
ordnet
staates
forces
updat@@
ф@@
prei
wins
fia
ühle
cement
lucky
songs
toten
ach
90
emand
ili
年@@
sand@@
annahme
6
einkommens@@
ث@@
euch
arises
ick@@
ก
bekannter
sis@@
ership
gym
ant
laufende
currently
tu@@
vorzunehmen
hit@@
bildschir@@
ct@@
davon
nationales
driving
odi@@
吗
oo-@@
postp@@
elen
distance
sein
bist
nachricht
publicly
metho@@
farb@@
erwerben
hilfs@@
.@@
liberalisation
vanc@@
uting
qui@@
utz
나@@
rubrik
häusern
ogo
liger
regular
vormittag
eine
spielen
administrativen
ing-
entur@@
iting
erlei@@
expressing
posting
dachte
eb
axis
inform@@
schätzung
begriffe
estone
schem
brauch
new@@
profound
sad@@
vast
analysis
nachhaltig
bot@@
materi@@
conduc@@
anpassen
drastisch
ermo
demark
enforced
facilities
richard
encour@@
onder@@
easi@@
estic
servers
zab@@
onna
immo
asso@@
fiscal
赌@@
25-@@
hart
comings
crash
we@@
populated
refreshing
ortes
erische
disney
fiel@@
spei@@
ertes
ergonom@@
region@@
beschwerden
wed@@
benutzern
moh@@
cker
anderen
beh
手@@
景@@
manipulation
walt
stef@@
codecision
mere
elektrische
．
richtlinien
decline
versehen
釉@@
personen@@
父@@
warnt
rechnen
entlichen
egypt
rhetor@@
verwöhnen
kürz@@
ooks
zulän@@
ast-@@
absoluten
ideen
inos
wikit@@
stehenden
ण
̈
pubs
modi@@
confident
pursuit
ffer@@
double-@@
fr
advantaged
portuguese
sowjetunion
discussion
directive
marvell@@
amazing
bosnien
sierten
nder
astrium
oi
qualifikationen
ensei@@
gescho@@
î@@
semin@@
haltungs@@
solche
sicher@@
winden
visu@@
principle
ui
wirtschaftskrise
tr@@
own
haup@@
modes
autonomy
cin@@
mitgliedschaft
philosophie
potenzi@@
veranlasst
rift
particip@@
ス
prestigi@@
lad@@
stellungs@@
public@@
dustri@@
zurückzu@@
assuming
bür@@
exclu@@
﻿
einwand@@
äler
diff@@
tastes
centers
elegant
ented
kore@@
ocean
my
dentally
ferrari
unzählige
desc@@
prise
urop@@
国
bezo@@
foren
marx
schwäch@@
simil@@
kostenlos
gh@@
allow@@
​
classi
algorith@@
ib@@
increasing
5
machinery
legend@@
intense
trage@@
helicop@@
pe@@
pil@@
deut@@
fassungs@@
entrep@@
00@@
ordnung
team@@
structural
ungsanlagen
alqu@@
lassung
markus
revealed
market
reich
6th
growing
quasi
kreditkarte
unternommen
mentation
sebas@@
inters
fehlen
z.
slowenien
schwerpunkte
freiwil@@
道@@
dopp@@
richtung
converter
seitens
bekommt
tere
fassung
gemüse
attributes
num@@
autobahn
ssigen
confirmed
wunderschönen
problematik
pursue
bili
cd@@
ynam@@
是@@
ż@@
ex
netherlands
courts
beschränkungen
vorzubereiten
argued
enttäuscht
μ@@
irischen
telekommunikation
ttern
merk
alisierten
disaster
berechnung
verk@@
energy
wichtigkeit
above
ised
etta
expressed
800
alleged
あ
bereits
compatible
theast
kir@@
strecken
regions
heritage
somm@@
ball
tici@@
س
mid-@@
kontinuierlich
downlo@@
nordo@@
gb
promises
duly
kam
β
judi@@
achiev@@
col@@
ئ@@
spannen
qu@@
heiligen
liqu@@
irregul@@
floors
schmerz@@
important
gast
setzen
valid
schreck@@
zu
häfen
ethics
üh@@
teuer
rat@@
harder
smell
kund@@
tabak
arbeitsmarkt
tive
ะ@@
asser
ebenen
stattung
borders
auftrags@@
scheduled
leistet
features
änden
verbessern
impetus
wesentlich
gangene
luf@@
last
tobacco
schulung
ester@@
alex@@
hervor
aktivität
ouren
volkspartei
brand
eich@@
spartei
figh@@
gebenden
benutz@@
quarters
negotiations
segel@@
ya
thaf@@
v-@@
越
besuchen
leisch@@
nets
jahr
profitiert
polizei@@
äden
guide
motivation
lar@@
ice@@
aufgeführten
attri@@
akti@@
pal
cri@@
decoration
forestry
な@@
à@@
patented
ì@@
political
over-@@
ы
britt@@
zug
auseinander@@
mitglied
personnel
fee
way
entire
bett
stro@@
ł@@
such@@
ensure
tsprü@@
encountered
baby
defending
灾@@
gü
bil
erkennen
heutigen
incre@@
partn@@
praise
ự
ovina
dicht
begegn@@
prä@@
altungen
siven
likewise
wertschö@@
6@@
ection@@
einzelheiten
einführung
ञ@@
abgeordnete
に@@
fischen
einfluss
eel
infl@@
eler@@
satisfy
cep@@
aments
pain@@
gigen
ausgeprä@@
barriers
video
pilot@@
lten
ender
eholders
portugu@@
fter
analyses
steckt
39
princ
schnelles
pl@@
installed
eland
textu@@
ά@@
zentrums
euror@@
enth@@
play@@
heißt
updates
hel@@
dies
portugi@@
ɐ@@
aper
gabe
vorder@@
wirklich
tunnel
percentage
underline
fak@@
dishes
bulk
tätigkeit
painful
vermis@@
exo@@
kompl@@
internationale
idi@@
lie@@
ausch
sü@@
emerge
llen
́
benef@@
verhandlungs@@
äußer@@
gold
anschluss
kohär@@
endorf
ultra-@@
ley@@
leaders
accountable
country
montage
elop@@
tzimmer
dimension@@
scar@@
nach
이
half-@@
individuelle
credibility
traditionell
doing
у@@
forbi@@
addresses
remuner@@
dare
是
anik
equity
deficit
zah
fear
verhäl@@
alischen
rich
oti
ämpf@@
attle
gelder
slo
sommer
hur@@
extre@@
pflichten
überlassen
zahl
ela
incorporated
dra@@
lächer@@
flowers
imported
floods
zusagen
schi@@
pressemitt@@
langes
voller
nica
mad
unzureichend
veröffentlicht
beliebigen
ek
步
gewährleistung
individually
म
ergebnisse
長@@
sahara
gabri@@
内
mp@@
probieren
speise@@
飼
sat
ukraine
gesucht
zukünftige
ausgehend
auffassung
stopp@@
mindest@@
auszuüben
januar
grundlegend
channels
ão
más
starts
compatibility
orienti@@
lernt
ologi
inflation
abri@@
bs@@
gel
koordiniert
folgen@@
sex
hard@@
duk@@
merkel
pull
â
play
sale
emissionen
suspend
dit
uns
青@@
tschrift
complim@@
pati@@
ington
tober
engineers
echte
ihr@@
kontin@@
star@@
fting
ano@@
vergröß@@
weil
detection
controversial
managing
francisco
strom
entino
schrift
zeitraum
acting
intelligent
transferring
scientists
teams
bavarian
long
heavi@@
century
thal@@
affiliate
peru@@
kehr@@
崎@@
hoped
zial@@
räumt
ides
ense
ausmachen
nether@@
budgetary
schützen
geschäft@@
cel
telecomm@@
庚
pariser
gen-@@
erfahrungen
wendungen
holz
feel
droht
tät
resultate
detailed
custom@@
皇@@
menschliche
entsp@@
jones
lastung
ơ@@
dargestellt
word@@
peline
ó@@
underground
öffentlicher
食@@
employers
öffn@@
37
stelli@@
herrschen
contemporary
millionen
thei@@
adv@@
beliebig
realen
conviction
interested
enko
small@@
ary
gestimmt
what@@
install
werte
asi
angela
verschwunden
ci@@
list@@
zerstört
luft
spots
本@@
inclusion
neuen
uss
gefertigt
plus
dez@@
seinem
either
shown
bestes
fairs
ส@@
letzt@@
cuban
试@@
erreichte
wig
imf
computers
zeugen
ό
chester
vollendung
chtungs@@
author
nutri@@
industrial
witnessed
aggres@@
beratungen
brand@@
schlug
desires
tras@@
viele
wuchs
richtige
klein-
cooling
yle
distinc@@
mäßigen
ça
chan@@
monum@@
ი
king
eive
去@@
trans@@
heated
gezogen
wom@@
bisweilen
screening
being
laubnis
respekt
aircraft
mario
ys
ism
ped@@
01.@@
viert
end-@@
porto
gebrau@@
eiten
defined
travel@@
attraktionen
than@@
幡@@
verarbeitet
einwohner
web-@@
surprising
chtungen
chancellor
mehrmals
lock@@
unions
deal
gestartet
folge
finanz@@
maur@@
copyright
find
aver@@
可@@
gvo
narrow
dominated
ults
involve
dec
hav@@
abenteuer
fewer
reloc@@
考@@
frozen
sport
4,@@
begeistert
rays
opinion
antique
feelings
platt@@
unnels
ussions
main
reguli@@
volta@@
textes
quick@@
龍
接@@
с
fis@@
e.on
貮@@
hair
customers
subsequent
老@@
heik@@
cooperate
partnerships
gehören
kopien
erwartete
dern
bieren
optimieren
ห
horse
verzerr@@
exceeded
configured
säm@@
konkrete
niveau
gebiet@@
balkan
viren
plot
favor
using
ii@@
appoint@@
channel
cuba
geschäften
folgte
证
internet-@@
chann@@
brü@@
dimension
method
commer@@
stetig
anmerken
foot
swit@@
ې@@
fikationen
alisiert
vorbeh@@
verleihen
throp@@
wachs
wer@@
involves
fate
cf@@
spartnern
ﬂ@@
typ@@
periode
poten@@
rael@@
g.
responsibilities
entstand@@
anyone
perpet@@
asters
zon
ierte
gemachten
tempor@@
enh@@
betten
univers@@
billi@@
ritt
llon
chapter
ĕ@@
historic
born
见
fron@@
只@@
11.00
men
maastri@@
pho@@
mahlzeiten
hebt
geschoss
wrong
箱@@
flair
lagerung
angebot
damer
depend
ellen@@
kambod@@
bree@@
zögern
vorgehensweise
staat
charming
erteilen
great@@
¤
excursions
術
contact
bietet
far-@@
15@@
verli@@
ue
时@@
wide
distri
ers
überaus
could
regulate
terraces
estimates
porte@@
adjust@@
lud@@
demokratisierung
约@@
methode
dringende
finished
riff@@
↑
schreiben
indep@@
hält
einmal
bangkok
ú@@
场
finland
splans
drivers
zent
dialogue
tig
schottland
freiwillige
president@@
og@@
indert
acous@@
oom
diet
intoler@@
prev@@
frustr@@
25@@
的@@
an-@@
büro
▸
hopefully
resident
sm@@
entering
biotechnology
产@@
restore
thousand
azz
have
klang@@
hot
somehow
fru
interests
certain@@
busy
turn@@
natürlicher
entfern@@
eres
aces
reti@@
krimin@@
mart@@
devices
erwachsene
ат
105
mware
aur@@
debatte
belgi@@
ssi@@
sorgungs@@
.net
reports
resp@@
gesetzt
safeguards
playa
gie@@
share
court
mare
ische
ahn
exploitation
akvis
fare
idential
в
verpflichten
blocked
palazzo
fache
recti@@
pez
boom
egel@@
lings@@
ality
awaits
does
kathed@@
mass@@
schwedische
ärkte
pour
serbian
alien@@
wachstum
ending
geltend
mail-@@
მ
sorgfalt
type
niedrig@@
glück@@
phys@@
〜
mr.
point@@
ausgeschlossen
fabric
oec@@
nennt
拓@@
ञ
tian
forest@@
17th
reck@@
manufacture
invoice
ry
word
erstre@@
顾@@
apart@@
schein
streit@@
ė@@
etti
civi@@
benötigte
ľ@@
sub
რ@@
bel
praktiken
て@@
mine
reiten
hung@@
heben
legacy
frage
schen@@
unterschiedlicher
occurr@@
ddle
certificates
angemessener
beispielsweise
provo@@
sick
oper@@
eign@@
tod
rücktritt
bezeichnen
fragestunde
funk@@
entsor@@
kür@@
plain
bien
ט@@
qu
israel@@
abhängig
enthal@@
komplexität
社@@
六@@
з@@
designers
völk@@
ammern
64@@
explic@@
2.0
iminary
räte
kingdom
erfahrungs@@
lowak@@
ecks
tages@@
daim@@
digung
walter
yst@@
samm@@
recognise
geschen@@
beschriebenen
hin@@
gotten
rome
export@@
keinesfalls
la@@
illeg@@
danube
ka-@@
neur@@
politicians
künftigen
life-@@
threat
ֿ@@
o.@@
produkt
limit
fat
enture
interview
bieten
社
paket
画
rapporteur
197@@
kä@@
victory
□
manufac@@
healing
ロ@@
patent@@
،
possibility
georgi
bal@@
befassen
qualifizierten
thereby
dar@@
timm@@
eon
outs
kommunikation@@
grammatically
д
taus@@
cher
zieren
oured
represented
winds
parad@@
resource
persönlicher
door@@
teneri@@
futur@@
式@@
tasks
pfund
江@@
cens@@
غ@@
argumente
recommendation
agenturen
ziele
monday
pattern
sexuellen
fikations@@
ater
celeb@@
mozilla
娱@@
pflicht@@
rön@@
れ
stenten
ark@@
artic@@
krieg
ango
voices
rather
devote
じ
zwungen
cohn@@
einschränkungen
gelände
cycling
ticket
previously
amts@@
ratic
consistent
fang
gestell@@
daraufhin
amen
klärung
stadtz@@
tschech@@
onte
fill
entary
step@@
model
parts
references
französischen
letion
eradic@@
grateful
asser@@
sing
曌
gy
hip
coastline
ild
kündigen
ouse
öne
biok@@
zum
gelungen
ル@@
sehen
지@@
verabschiedet
derzei@@
distingu@@
amerikaner
♀
fabrics
isierung
badezimmer
virtuellen
ra
mechanism
inne
reflecting
informed
zentral
generous
ृ@@
ankar@@
inspired
classified
broader
bahnen
schwieriger
dierung
riesige
lingual
sourcing
zeichnen
unseres
mend@@
ob
ru@@
ausgehen
hard-@@
eht
mas@@
1930
eas@@
gleichnam@@
leicht
木@@
nover
divide
kro@@
center
entran@@
entwurf
tschaf@@
პ@@
residence
ratspräsidentschaft
coalition
aser
romantic
音@@
wohl@@
arbeitsplat@@
persuade
vorgelegte
み@@
zerti@@
railways
horny
vegetable
구@@
annte
verf@@
rarely
sicherheitsrat
handic@@
coll@@
traktionen
ड@@
█
á
kostspiel@@
tnissen
ess
entrum
fix@@
usual
beach
von
א
aboli@@
ber-@@
街
hierzu
eure
foo@@
erstklassigen
firstly
langu
concessions
癌
training
fts@@
deleted
shooting
tiqu@@
sensiblen
anzubieten
actu@@
eingeschlossen
restriction
saying
anwendungs@@
komplett
spend
handled
于@@
ambiente
fallenden
yr@@
angaben
tener
cruz
sity
h-@@
erstes
investig@@
lines
esp@@
separated
struc@@
8.@@
67
issuing
del
寧@@
acceptance
arriving
ths
denjenigen
已@@
archive
worf@@
accessibility
stitution
geist
engli@@
ym
tured
davi
lizen@@
granting
illar
ón
algerien
utmost
ausarbeitung
sparungen
ical
gelegt
bewegungs@@
hostelsclub
orientiert
0.5
efs
zon@@
eigenschaft
beneficiaries
hafen@@
strategischer
decor@@
wache
ante
à
schaffen
derartige
î
seit
workplace
offenheit
nachweis
appearance
arc@@
aths
grei@@
veren
didn
nick@@
islands
herr
freed@@
mais
mittel@@
erreicht
kill
cket
ota
suffered
folios
steph@@
mikro@@
says
port@@
pain
tyard
geladen
opposite
e.
650
konferenz@@
uen
sogenannte
waren@@
co
erhalt
entwickler
geduld
balance
wenden
seasons
ק@@
ћ@@
abkommen
stran@@
ump
grows
lit
nachhaltige
umgang
right-@@
ür
fordern
peac@@
statistical
pad
assozi@@
itely
太@@
adobe
putin
conv@@
zz@@
せ@@
zweck@@
combines
т
bedroom
einlad@@
indu
gni
beispiel@@
zy@@
bewaffneten
scandal
relax@@
eingegangen
professionellen
verage
cash@@
swiss@@
gemeinschaftliche
ective
batteries
ziert
übrigens
stanzen
ִ@@
ept
gmos
tras
behörde
infrastruktur@@
〔
ヒ@@
ric@@
alling
ees
renewable
she
autovermietung
brosch@@
stellenwert
turkey
45

barer
ideal
informations@@
liban@@
innovative
manchester
schwierigen
ole@@
endi@@
jedermann
blickt
ühungen
concrete
int@@
3.2
jahrhunderten
呼@@
छ@@
beschrieben
brava
secured
bewegung
zwei@@
versu@@
befra@@
korrigi@@
poor@@
으@@
pg
beri@@
recordings
aufklärung
ữ@@
beaches
infr@@
ngl-@@
ystem
folgende
zurufen
berühm@@
erfassen
degra@@
iner
総@@
영@@
enne
make
wedn@@
licences
embership
writer
gest@@
füllung
polen
berechnet
bettwäsche
rapid
sy
krankheit
ranken
logistics
sty@@
aining
gegenwärtig
n
pflan@@
weekends
seu@@
tations
florida
fuss@@
unver@@
mus@@
₪
220
arrived
würfe
situationen
höhere
rober@@
ຖ@@
erweiterungs@@
bedeutendsten
st.
destruction
特@@
bares
lin
gründete
zzo
ã
ald
jugend
atico
einander@@
realm
stä
flo@@
erleichtern
pipeline
tiques
by@@
inter
.de
ac
partment
respektiert
2007-@@
creation
len
enters
european
habit@@
brands
〕
pru@@
gnü
established
dienstleist@@
bös@@
filter
fremd@@
beunruhi@@
manifest@@
lk@@
★
mühe
inherent
喜@@
xen@@
mutual
remarkable
rit
bars
chemie
湖@@
critical
doh
宜@@
toxic
interrupted
kulin@@
も@@
accepts
adher@@
edition
ähr@@
dental
lokaler
beherber@@
bemerkt
reichen
ismen
voted
revol@@
effect
struktur@@
л@@
hilfsbereit
brin@@
complex@@
experi
set
brachten
dir
begreifen
antibio@@
국@@
dict
conclu@@
weites
patrick
greater
mechan@@
olog@@
sah
claude
anliegen
cooperative
ial
extend
nutzungs@@
amps
bereit
fertig
everyone
antonio
found@@
werks@@
华@@
olive
wholes@@
democ@@
geringer
doppelte
storm
気@@
mining
ethischen
zucht
traf
counters
stigen
騜@@
jeglicher
diskutieren
merc@@
polnische
cast
gä@@
coverage
optimalen
schm@@
decade
earth@@
vol@@
chur@@
sün@@
ke-@@
ehe
cot@@
glob@@
poll@@
ham
bolog@@
newspapers
۵
kriterien
favor@@
hop@@
zubeh@@
motiv@@
großartige
en-
import@@
য
igar@@
forced
限@@
ators
räder
vorteile
gerte
instructions
arity
erning
吉
freundlichen
米@@
watch
convinced
aufgenommen
iten@@
77
mallorca
м
gül@@
penalty
rare
behinderungen
händ@@
langsam
ferien@@
lor@@
akzeptieren
exklusiven
schla@@
ausgrenzung
revolution
formally
year-@@
macht
territori@@
december
entscheidet
shopping
return
formular
1
mun@@
better
verhandelt
ə
nir@@
error
fail@@
europäern
fasste
unix
senken
david
越@@
nigeria
gelegen
simple
koennen
footing
mina
unterstützung
schöpf@@
cozy
report
expenses
sauna
use@@
citiz@@
eingeben
density
preventing
d.@@
attemp@@
index@@
analyse
rue
arise
titan
ness
hybrid
electrical
elderly
develops
sos
setzungs@@
koloni@@
froh
erscheinung
tol@@
änd@@
perceived
croatia
hilfrei@@
aufgegriffen
till@@
elim@@
wav@@
sofor@@
linge
interessant
imperative
arm
hydro@@
blow
示@@
stit@@
apos
erfüllen
grö@@
gres@@
見@@
nicolas
mini-@@
mässig
forsch@@
besseres
動@@
featured
hamp@@
legitim@@
ohn
ellem
л
bags
teur
expect@@
wirklichkeit
geber
tili@@
preced@@
nose
eventh
moderate
卓@@
emma
accord@@
research
h-0@@
tre@@
fand
schuh@@
dynamik
günstiger
contro@@
ño
warranty
remarks
anon
susp@@
陵@@
gru@@
diert
treffen
ermordet
parent
ously
aut
fascin@@
leh
ple@@
download
tool@@
f
neg@@
bizarre
ker@@
universe
ich
wiederaufnahme
etappe
1974
eisenbahn@@
פ@@
mens@@
ciary
ailing
ng
alizes
endgültige
awa
üns@@
81
festlegung
studien
ow@@
mittelmeer
aner
zugenommen
ganzen
congratulate
stered
eway
cuisine
旅@@
(
before
morgens
tonnen
detention
ダ@@
ut@@
nature
idsch@@
fed
louis
crespo
alps
凄@@
kommen
küsten@@
ĸ
ließt
unlau@@
phe
schre@@
transaction
graf@@
vat
orchestra
neo@@
赶@@
仮@@
ash
tou@@
funktion@@
tiefer
fertigt
abend@@
dessen
²
simon
charme
cris@@
rechen@@
acces@@
qualit@@
hände
learned
atten@@
rein
mbo@@
dealer
augenmerk
stav
ver
prevail
legitimate
η@@
次@@
þ
°
trust
钢@@
proposed
enttäuschung

elem@@
hi
illness
wir
平
vorrangi@@
gastfreund@@
träge
heal@@
thre@@
efficient
universi@@
wikitravel
algarve
indicating
nächsten
unverzüglich
rivers

auszuschließen
cians
ausführen
8th
1970s
mern
medi@@
atro@@
verzichten
tungen
selt
herausforderungen
eg-@@
ttä
ression
kaz@@
ise
translators
movements
appart@@
fotogra@@
sensitive
speak@@
anos
illustr@@
zusätzlicher
certificate
broad
french
ogra@@
ezu
centrally
compiled
atories
enormous
symboli@@
agt
bern
schlag@@
departure
“
lengthy
ion@@
family-@@
solely
cock@@
rah@@
naturkatastrophen
eters
itu@@
囧
troub@@
luss
zuletzt
telefon
zusammenhän@@
values
suites
nachbarn
generator
konzern
spoke
ard-@@
pushing
lights
behauptung
jüngsten
erfordern
birth@@
球
embark@@
gnis
seats
studien@@
ielt
lack
kombinieren
erreich@@
movies
unfall
undes@@
spannungen
attractive
truppen
d-@@
urant
ligkeit
fuhr@@
extract
µ
created
regen@@
maj
fuji@@
invite
健@@
geringen
pedi@@
読@@
metal@@
ultur@@
dict@@
ĉ@@
entry
consultation
natürlichen
nachmittag
natur
trials
bislang
konzer@@
erlaubnis
magazines
ele@@
striking
ṃ@@
phänomen
component
importance
ー
races
ari@@
mhz
erem
grande
lichere
etab@@
umwel@@
rog@@
氏@@
ingenie@@
wertet
renovated
glei@@
umständen
lood
verbände
hear
verstoßen
santiago
integral
determines
öffentlich-@@
bergen
e.com
herstellern
ษ@@
ventionen
reaching
phenomenon
highlighting
parti@@
blas
ption
evol@@
solch
ohnehin
athen
demokratien
wheel
07
umgebung
bezahlen
klass@@
織@@
hypoth@@
nach@@
qualität
η
documentation
ს
smart@@
vorliegenden
befür@@
unte@@
＊
花@@
größt@@
rise
schriften
attributed
haftet
1.0
eliminating
profession
پ@@
holidays
db
aria
boo@@
kenne@@
kräf@@
flotte
marketing@@
täglich
em-@@
sorgfältig
corporate
verkaufen
ancing
belange
western
eign
großzügige
enem@@
rt
debian
uss@@
boa
initially
previous
for@@
league
tish
ursprüngliche
電@@
thema
survey
high-@@
raum@@
ณ@@
gehörigen
2001
lufth@@
tables
ationen
batt@@
ierungs@@
reader
koso@@
genauso
ungsphase
sive
я@@
län@@
volumes
sak@@
successes
100@@
most
trainings@@
programm
ticul@@
auftritt
seite
liebe@@
britische
皮@@
representative
haber
appealing
operative
schafter
entation
trademark
立@@
war
aus@@
eintrag
rated
馬@@
point
fangen
weltmarkt
gewährleisten
kä
entlassen
jed@@
heili@@
gü@@
९@@
ủ
eher@@
comparison
fahrt
kurze
balk@@
implementierung
พ@@
well@@
alkoh@@
interessieren
promote
integrated
früheren
gradu@@
sche@@
declared
connec@@
scrutiny
circul@@
fernen
barcelon@@
trat
hardware
abuse
gehalten
shapes
äuß@@
ama@@
blin@@
il-@@
े
protes@@
filters
vereinigte
ghtful
einladung
这@@
moment@@
exclude
站@@
kil@@
dening
テ@@
ategorien
befindlichen
gedruck@@
￥
keys
horiz@@
千@@
known
ehmer
sat@@
buchstaben
airbus
gelegten
p-@@
gehalt
durfte
anhän@@
any
vorant@@
erneuerbarer
eill@@
egro
amerikanischen
ttä@@
herstell@@
11
loads
effektivität
durchführung
verlei@@
zone
ausflug@@
ausbeut@@
a-@@
papier@@
webseiten
tigt
cing
forschungs-
messer
tags@@
opera
arts
eva
列@@
funktioniert
ų
neueste
score
öffnen
injured
enix
er@@
privilege
präzise
nun@@
italy
secret@@
erzeit
業@@
je@@
siedlungen
robo@@
妻
resour@@
gom@@
cars
ologie
wolle
resist@@
round@@
pointed
kredite
nnen
bed@@
wiederherstellung
musik
bigger
sey@@
lifelong
areas
ど@@
о
cub
zuvor
treffend
parlament
wachstums@@
ürfen
colourful
yield
biotechn@@
徒@@
son@@
sheet
ander
these
花
processor
nacht@@
fourthly
ento
ausge@@
mont@@
gi@@
transfers
container
kräften
empfohlen
reli@@
dameri@@
訓
contain@@
stöße
merken
blan@@
cm
daneben
₤
aktiv
ens
fanden
herrschenden
passing
employ
unds
mouse
exemption
eim
informations-
klus
ete@@
zürich
tism
handelt
表
angeboten
luc@@
üpp@@
vorstellung
chec@@
c@@
schaftliche
whole
feedback
tab
production
später
konfiguriert
climate
unbest@@
erwarten
cope
voraussichtlich
mechanismus
eds
t.@@
flood
ethnische
alize
easier
cts
frauen@@
holiday
campingplatz
facto
investiert
har@@
unterschiedliche
۷
hauptsächlich
aster
anlage
appropriately
besseren
stün@@
opp@@
question@@
birthday
chi@@
astronom@@
ke
málaga
gende
ärz@@
essenti@@
kurzer
羅
truck
vorbehal@@
oping
aufre@@
fears
भ@@
tank@@
schte
dep@@
legte
pre@@
additionally
entertainment
eed@@
block@@
name
bra@@
ofs
食
gespei@@
fertig@@
assumed
gängi@@
ɪ
transparenten
liegenden
eingenommen
uncertain
bres
ben
bewegungen
sprüche
seminare
vorbereitet
expres@@
dreißig
reform@@
age@@
1987
bilden
ores
shi@@
langjährige
betreffen
ham@@
sinne
microsoft
regeln
trek
angenehm
architect
ɔ
iko
liefert
ë@@
fördert
vels
plant@@
un@@
wacht
launching
1962
übersetzungs@@
pedia
coni
arten@@
typically
theme
montenegro
川
finnish
pisa
netzwerk@@
ster
thful
金@@
wh
burger
raph
rotar@@
occ@@
geheim@@
ceram@@
trocken@@
pedro
tages
piano
ratification
jen@@
58
流@@
malaga
fähi@@
ciano
beispiel
leistungsfähigkeit
datenbanken
coffee
earthquake
tournament
ढ

sicher
libyen
nel
extraordinary
piece
ists
alic@@
gruppe
tern
mehreren
务
undry
romul@@
split@@
pun@@
varying
google
regelmäßig
gültig
platform
steigende
ь
zweck
gelad@@
gebrauch
bet@@
ré@@
den
arro@@
秋
phy
cia
termin
erworben
erzielen
鄭@@
ew
1500
knei@@
空@@
索
bri
sozialistischen
hervor@@
laim@@
i̇@@
gelang
fähige
hemm@@
gter
blä@@
rangi
jähriger
stadt@@
natür@@
潮@@
hunger
ē@@
rote
toil@@
cases
anen@@
uhr
alität
ant-@@
legungs@@
string
beschränkung
elles
divi@@
ständige
itement
cio
1-@@
fein@@
imagination
sense
touristen@@
begüns@@
schaft
elections
success@@
eröffnung
islam
key@@
tionen
deln
500
orientieren
sen@@
ieve
wertpap@@
verlin@@
rechtsgrundlage
latein@@
降@@
submission
fik@@
debts
tual
charm
vention@@
talter
juni
verspricht
chanc@@
eventually
wordpress
städ@@
wald
ierungen
排@@
onlin@@
sagen
unterzeichnen
zen
ursprung
haag
indem
sung
eless@@
at@@
besuchte
nizza
agri@@
hart@@
bestimmt
stock@@
lement
vaku@@
laufend
و
disp@@
ton
angel@@
ド
ake
ally-@@
mangel
tera
wareh@@
belong
wanderung
ounce
komplexen
beacht@@
rot
gewähr@@
hör@@
76
rüger@@
gebiete
öffentlichkeit
ator
activists
anfragen
pesticides
aluminium
été
gearbeitet
waldner
accoun@@
am-@@
begleitung
gelief@@
関@@
ame@@
pursued
牙@@
limitation
dex@@
慈
told
kaff@@
bald
schluss@@
arising
occurred
konflikt@@
adar
spielern
beinhalten
attractions
cz@@
ğ@@
biblioth@@
jap@@
yal
understand@@
applying
suns@@
ู@@
publications
extended
int-@@
110
堆
existing
acci
mittelmeerraum
♣
short-@@
im@@
09.@@
welchen
pul@@
nationality
verbreitete
vocal
recommended
loch
fli@@
gathering
führenden
vers@@
asking
schnei@@
mittelalter@@
grundsätz@@
flas@@
gesellschafts@@
mitzu@@
vent@@
considers
ew@@
wirtschaft@@
stei@@
corner
getan
prä
eist@@
symph@@
ν@@
transitional
mpft
stant
responding
fähr@@
consultancy
albeit
sibili@@
texten
۱@@
unternehmens@@
surroundings
izi@@
bedrooms
sav
literatur
ellow
japan
free-@@
wohlhab@@
expense
sn@@
bling
fund
ine@@
untersuchung
semi-@@
arz@@
transpor@@
protectionism
lau@@
dublin
witn@@
kostet
vary
answer@@
endo
jun@@
terrorismus
falling
withdraw
transatlantischen
prü@@
encies
wahr
customer
legs
sé@@
positives
galile@@
sc@@
check
wohnung
gewinnt
timetable
entwickelt
‛
ende
compromises
handhabung
wiss@@
ц
blocks
ratified
vertrauens
link
schnellen
secret
wahrschein@@
prestige
oft@@
vorgaben
est@@
wun@@
і
maus
textile
リ@@
zurückkehren
füh@@
seal
shops
arrive
mexican
ethernet
dec@@
feste
ग
stätte
correction
τ
ler@@
spaniens
standes
lägen
kommission@@
fac
sk@@
phase
羽@@
leather
gestern
increasingly
jord@@
gleicht
oven
restaurant
pository
zahlreicher
czech
ablish@@

verweigert
wichtigste
apa@@
conventions
kürze
ic-@@
pow@@
吴@@
fol@@
hervorheben
reduc@@
敏
notable
ernsthafte
geschaffen
orthodo@@
kampagnen
france
setting
widerspiegelt
札
zusammensetzung
pensionen
sleeping
altitude
wissenschaf@@
soviet
altstadt
spitze
nieder@@
problems
bestellungen
batter@@
kenya
urg@@
regelmäßige
into
implic@@
icken
fireplace
ansatz
-s@@
einhaltung
sowohl
berlus@@
judge
at
conil
nos
kroati@@
ن
fortun@@
isely
zün@@
viel
reaffir@@
familie
除@@
blockiert
ger-@@
threatened
etik@@
speicher@@
beruflichen
consultations
но@@
smaller
ernen
promotional
trop@@
zur
outside
ton@@
stattfindenden
backup
wedding
zehn
initi@@
frühst@@
mens
allow
rün@@
saving
timely
dus
ean
services
dei
followed
seemed
phases
ْ
lebt
gesetz
practice
abu
einge@@
teilnehmenden
remo@@
比@@
logo
alba
stischen
b-@@
wiederholt
käl@@
11.@@
resolution
peri
up-@@
rü
zwingend
selbst@@
genes
daniel
estonia
ferner
ido
sor
beschränkt
injection
ansprech@@
sitz
today
still
mehrerer
earnings
江
unterzeichnung
hu
gelö@@
encryp@@
hilft
untergebracht
nock
arischen
ini@@
agreements
highlighted
amerikan@@
arian
bedded
tierte
entsprech@@
strength@@
kommunismus
agent@@
cpu
1990s
number
3.1
herunter@@
objective
competitions
č@@
kleine
mur@@
effici@@
convention
dischen
stehende
eines
识@@
inspec@@
52
teren
keyboard
exerc@@
search@@
effizienz
teilnehmer
☆
run
donation
wholeheartedly
menü
station
latt@@
mp
individuell
schlie@@
elektro@@
schädlichen
kuli
majority
kün@@
zwischenzeit
tö
renoviert
ment
真@@
emphasises
planen
nei@@
improving
lassungen
versuch
xis
fachleute
ancement
gang
gefragt
hand@@
mari@@
居@@
腹
kein@@
slo@@
pots
incurred
_
底
aviation
ἰ@@
ث
transplan@@
wirk@@
地@@
unteren
relevante
thwest
diplom@@
indispensable
subjected
neum@@
help@@
renaissance
dazu@@
immunity
integri@@
diejenigen
题
ved
world
preser@@
kris@@
besonderer
applikation
christlichen
outstanding
spo@@
zudem
erend
30
essions
countr@@
are
tatsächlich
schengener
o.
academy
a.
alien
protocol
interven@@
郑@@
martin
ament
ren@@
ands
躇@@
akadem@@
َ
ausschließ@@
energi@@
entspricht
avec
presidency
furnishings
ummer
bestehende
diverse
؛
verbrauch
nok@@
同@@
precision
etch
ute
teb@@
loans
flüchtlinge
continued
wand@@
girl
digungen
relevanten
combining
zufriedenstell@@
institutionellen
dge
regierungschefs
nungen
arom@@
arabien
gen@@
störungen
einst
ect
ncc-@@
room@@
differenti
jan@@
ätten
wei@@
busse
viz@@
traum@@
urgent
june
down
ungsergebnisse
endum
worldwide
plug
ช@@
kosme@@
entries
bildes
consensus
damaged
don
ner@@
angest@@
manufacturers
basierte
inners
ni
ation
unmittel@@
dienstleistungen
bindung
ränkte
month
states
substances
umstellung
erweiterte
港
accom@@
re-@@
brussels
beweg@@
ability
diges
mündliche
five
casi@@
fotografen
ı
digkeiten
christians
critique
passende
अ@@
seaf@@
check@@
inger@@
asy@@
gebühren
gement
tschaften
appartements
ɾ@@
noticed
benefici@@
750
tunisi@@
vente
claims
dringlichkeit
dis
rent@@
kni@@
phen@@
respek@@
agent
dingen
lub
conserv@@
sein@@
eng
supports
dürfte
arrangement
沛@@
einf@@
app@@
os
吾@@
atischer
risen
müs@@
opened
serves
strafen
herstellen
homepage
rac@@
instrumenten
wiederholen
exclu
nör@@
ziehung
investigate
laub@@
fir@@
gerweise
schätzen
genommenen
unusual
responded
gleichheit
herum@@
kt
cardi@@
marke
demon@@
finanzi@@
jo@@
3@@
autobahn@@
school@@
鬼
upgra@@
geri
rating
keram@@
unent@@
expliz@@
erhebliche
gebäude
poverty
edly
attet
製@@
distur@@

interessante
deprived
prejudi@@
reak@@
poli@@
lea@@
atum
dan@@
lation
nern
believed
sters
ausbruch
maßnahme
rohr@@
spann@@
nissen
moon
kalische
berichten
dest
positiver
droh@@
balkon
余@@
tnismäßig
buchungen
eink@@
panels
erweist
chose
gradual
arians
chat
aufsichts@@
disappointment
‚
ieren
weisung
him@@
abs@@
visits
hü@@
ausgestattet
ementi
poly@@
orts
sq
austerity
nepal
integrierte
umfasst
runde
sech@@
lv@@
med@@
trieb
arafat
eri@@
gesamtheit
apel
ß@@
initiativ@@
施@@
här@@
cross@@
aris
än@@
reluc@@
waren
yan
creates
bereitgestellten
operators
inves@@
felt
komfortablen
azur
berlin@@
cns
gleich
früh
vertra@@
…
komp@@
liances
gasse
ausgegangen
ел@@
objek@@
allerdings
par@@
itable
mien
applause
istisch
lare
sers
büro@@
ĩ
venue
börsen@@
forschung
vollständig
ix
däm@@
entwickeln
thailand
near
connects
identifying
richt@@
antes
望@@
bene
versionen
客
expand
survive
ired
sur
sei
clu
utive
punkte
nen@@
transportation
follows
doubts
schiffen
prosp@@
fic
分
polo
subscribe
relationship
klaus
perf@@
vertical
capita
krebs
wholly
ergibt
anzeige
stronger
ा
aan
auschecken
particular
fortress
controlled
zut@@
erdbeben
ス@@
gelun@@
endste
ölk@@
returning
sciences
eurostat
sofa
ἀ@@
ergebnissen
listings
badly
medizinischen
fach
klima@@
dump@@
torial
icon
less@@
campaign@@
flying
wc
losigkeit
musiker
bewu@@
pati
۲@@
disziplin
fotok@@
ül@@
ор@@
eingest@@
lam
schwä@@
generalsekretär
tsp
term
stressed
cellar
bezogen
drinking
leute
alan
challenges
ebook
doub@@
asting
readers
钧@@
bearbei@@
remain
dynamische
muß
lies
come
泊@@
specialities
cou@@
choosing
afternoon
kapitalismus
among@@
memor@@
泉
ara
dark@@
izi
farm@@
acu@@
fortsetzen
unite
vertraulich
ien
方@@
sch-@@
population
pru
ächt@@
emotional
juli
audi@@
disadvantaged
oriented
ring@@
bished
ύ
bab@@
essive
reasons
textiles
natura
binden
generationen
处
erinnen
nation@@
communicate
stimmung
taken
wald@@
schicksal
unser@@
zb@@
飛@@
ד@@
dienen
committ@@
trafficking
avenue
werks
gemäl@@
ints
schwieri@@
uren
military
früchte
schalt@@
geno@@
personals
interie@@
surprise
städten
revised
utility
reiches
miss@@
plung
he
call
verdienen
tisch@@
flugzeugen
lity
phenom@@
选
vi@@
mehrwert@@
spot
nuklear@@
fast@@
sonne
ihrem
allery
resistance
haushalte
my@@
视@@
ap
intensiv
begrüßt
sei@@
abhängigkeit
ụ@@
tampere
款@@
配@@
disp
ha-@@
የ@@
dogs
起@@
isolation
bezir@@
charles
200
15.@@
staff
ň@@
gekehrt
gothic
credible
音
zugleich
gelegte
dc
gewann
electric
dritte
sich
toler@@
plu@@
300
butes
wide-@@
giving
allgemeinen
了@@
tatsache
胡
e-@@
乗@@
酒@@
organ
handeln
й@@
window
reflection
hearts
alter
commit@@
operate
auseln
adapted
flucht
verbundene
34
ộ@@
pri
sk
schiff@@
travelers
resulting
anzu@@
glich
verhalten
flüchtlings@@
thing
monats
straight@@
村
jugendliche
consi@@
ΐ@@
vereinten
innovativer
negotiated
ning
yiel@@
bestimmen
reflected
schnell@@
qualifications
severely
ruled
mt
epide@@
verkauf
anmeldung
inventory
59
violent
nie
therefore
einige
könne
execute
ธ
schreiten
morocco
lunch
eile
properly
itment
beruhi@@
absolut
tio
bass
女@@
recht
exit
magnificent
gewähren
utting
passport
contents
ßer
city
氣
sony
ो
jacuzzi
lem
bun@@
rech@@
modellen
ners
drän@@
illi@@
colour@@
unterschiedlich
eties
rechtsprechung
beruhen
gall@@
pos
voyager
stag
41
befu@@
drei
eingab@@
pack@@
sight@@
contradic@@
characters
leyball
kitchenette
择@@
bewertet
ल
bruder
nah
極@@
compromise
verlassen
proprietary
reduced
eph@@
„
ertevent@@
piet@@
as-@@
process
io
rein@@
bure@@
farben
dere
rieb
ehrgei@@
ausgearbeitet
ет@@
bandbreite
ged
ro-@@
beabsich@@
600@@
southern
pro-@@
ぃ
ddenly
ambigu@@
discussions
won@@
leben
lem@@
wirst
vorhaben
eingeleitet
oth
fischler
ameworks
wohnen
น
übernimmt
steuer
ürf@@
beratung
च@@
covery
dieselbe
übung
erte
耀@@
kok
ư
decentr@@
digitalen
public
wünschte
tedly
innere
bar@@
chancell@@
completely
ef@@
überein
eurob@@
extra
recognition
lie
limm@@
durchaus
fallen
id
摩
b@@
benefit
scheme
marg@@
.ch
vorab
min@@
ahme
neighbouring
つ@@
gener
ein@@
teres
möglicherweise
barkeit
vergleichen
hydraulic
outh
weiterbildung
ark
ungst@@
tique
argentinien
frem@@
tening
bestmögliche
rec@@
tali@@
wichtiges
2007
eco@@
wohnt
appears
sensus
unglaub@@
tigten
lee
liness
prop@@
staun@@
bruch
discuss
corresponding
courage@@
robu@@
whatever
ý@@
boot@@
8
ৰ@@
lab@@
but
50@@
chambres
sacri@@
workers
übermittlung
during
抜@@
threatens
ruhi@@
nächster
concerns
ließ@@
fiction
saint
eiro
expectations
ywood
person@@
ilers
precedent
zuschauer
schär@@
ñ
kas
brok
puts
innen@@
they
überrascht
sdl
technologien
aß
tisches
waffen
thin@@
ausführlich
1956
hab@@
alia
berechnen
boundaries
ũ
map@@
ried
mou@@
coastal
cat@@
sich@@
staatlichkeit
熨@@
ţ@@
fraktion
niveaus
wonder
einzigartige
einzigartigen
consulting
rechnet
performed
dence
teilen
from
thro@@
propose
sts
kindes
tini
heli@@
ก@@
gemeinnüt@@
rüstung
asts
referring
τ@@
dar
deals
lichkeits@@
gieren
entru
ektur
behindert
bestellung
großem
realistische
nonetheless
ollars
europar@@
politischen
leonardo
fels@@
quad@@
ittle
nl
od
jahrhunderts
erhöhen
温@@
gebeten
flexiblen
drugs
ac@@
lacks
taiwan
punta
ischer@@
silverfast
legend
namely
increases
otype
arin
tranqu@@
fälle
communist
versorgen
tranquil
83
pping
ned
leiden@@
laws
europa@@
ん
myself
ワ@@
olaf
käufer
ĉ
entered
taire
houses
fes@@
finanzen
jam@@
example
dampf@@
marking
ausgest@@
gungen
风@@
monetary
xis@@
personenbezogenen
teacher
äck
anweisungen
belegt
vertreten
死
fu@@
asty
形@@
spain
infra@@
02
zeit
sovi@@
parlamentarische
österrei@@
irak
quests
entspannen
verwendeten
earlier
its
brow@@
isition
idealen
geschäfte
field
1.3
nä
covers
cz
erkennt
replacement
ss@@
artige
self
akzeptabel
revenues
han@@
lus
massive
esday
association
breiten
akter
gebi@@
farmers
running
kab@@
favoured
md@@
ausser@@
ћ
东@@
ü
15-@@
emented
wednesday
hafte
dri@@
driver
jahrzehnt
al
traq
auditors
bekannt
afterwards
ۇ@@
emer@@
anna
supporting
家@@
149
ograf@@
wards
realize
zwan@@
einleitung
oked
sitzt
margar@@
interoper@@
explanatory
typisch
abe
toskana
hoffen
gepf@@
focusing
kritisiert
vorsch@@
inseln
digten
genen
gehenden
grüne
emals
—
schü@@
ń
erkennung
disastrous
general
wäsche
ellschaft
licht
russians
ärer
twi
sichern
trägt
回@@
announce
材@@
dynam@@
program
dritt@@
understands
budapest
dex
worn
klusive
apache
behold
spezialisiert
vertre@@
◎
ohne
on@@
aka
stärksten
allowed
85
partments
facility
der
wässer
cad@@
利@@
professionell
mile
vorstand
abstained
medieval
do
ồ
r-@@
transparent
sugges@@
coal
ή@@
icul@@
subsidiary
whilst
market@@
aden@@
planung
nou@@
ň
criteri@@
nobel
suffici@@
前@@
handlungs@@
ambition@@
lauf@@
catalog
kli@@
duration
furniture
grenzung
vo
ere
wäch@@
points
kuka
relevance
grö
män@@
dolomites
fik
stuttgar@@
legendary
48@@
rock@@
einklang
seever@@
mosk@@
chtete
two-@@
eman@@
poth@@
gli@@
ע@@
mord
stör@@
worst
erinnerung

川@@
kreativität
flex@@
passen
turn
ㄤ
ous
unilater@@
gestellt
canaria
ème
abfall@@
tschechischen
素@@
父
tigkeit
geschmack
enni@@
continu@@
orte
lande
dokumentation
publication
tabellen
werkzeug
切@@
obliegt
mos
ª@@
targeted
keen
dateien
sold
denden
solar@@
bau
nh
formal
gum@@
üste
afri@@
fulfilling
pflicht
spektakul@@
dation
domini@@
rejection
coating
ak@@
diente
schecken
solidarity
warran@@
democrati@@
experten
liebt
75
wanderungen
easily
especi@@
beschreibt
northern
ศ
ƒ
chte
mm@@
ordnen
address
branches
objections
studie
fic@@
übernachten
け@@
din
strongest
scotland
ب@@
unterbreiten
geor@@
somewhat
photographs
zw@@
venti
festivals
bc
̤
lenstoff@@
für@@
erarbeiten
ami@@
filme
lling
치@@
upon
exec@@
santa
üblicherweise
strahlung
zulegen
authoritarian
jesolo
determining
aud
erneut
türkische
constitutes
agiert
泥@@
forder@@
8@@
startet
betroffen
came
those
103
reduzi@@
erin
gn@@
bou@@
zugrunde
enrich@@
lang
nap@@
feuer@@
ents
aup@@
antwortet
formity
arzneimittel
bill
reductions
madrid
wurzeln
wy@@
liked
time
veranstalter
ź@@
kurzfris@@
pfeiler
netto@@
detaillierte
packed
stuff
socio-@@
portugal
newsp@@
konfigurations@@
inclu@@
aked
kampagne
hou@@
厂@@
künstler
alisierung
gerichts@@
mittlerweile
messe
clock
algeri
malen
gelegene
milch
zahlreichen
gesundheits@@
linie
№
aufstellung
ipo@@
jugend@@
ọ
sorry
ätz@@
glückwunsch
ste@@
beschränken
ede
mehrfach
ор
hafen
cand@@
flation
drogen
retten
vienna
sle@@
osten
visit
ন@@
enk@@
basi
rad
zuhalten
payments
sp@@
맨@@
amster@@
größer@@
anzuzeigen
禪
ns
elemente
color@@
wealth
hervorra@@
fung
äh@@
itation
patio
deb@@
urugu@@
ausserdem
naturally
feature
danken
exag@@
orts@@
spreis
bananen@@
correspon@@
ar@@
committees
2005
片@@
ständig
fürst@@
zonen
proud
top
streng@@
frame
ku@@
discriminatory
pi@@
lot
sloven@@
包@@
und@@
oliven@@
genfer
squ
choose
true
employed
mußte
gimp
radical
niederlage
usal
isch
verbessert
dokumenten
persist@@
isse@@
场@@
günstigen
tur@@
assist@@
irs
ove
kin
losoph@@
spread
plenum
art
angriff
kommunikations@@
debian-@@
pferd
certi@@
beachtung
ด@@
osteuropa
karlsruhe
größter
gesetzen
übergreifenden
f-@@
ohren
tisch
ĸ@@
prestigious
colon@@
dj
tops
quarter
engers
bietern
nobel@@
unclear
kari@@
laub
akzep@@
konflikts
ficial
kanal
gitar@@
p.@@
did@@
iron@@
disciplinary
প@@
architectural
obsol@@
globale
ح@@
gleichgewicht
else
hospitality
ös
ep
fehlenden
framework
ው
็
stock
£
valu@@
beteili@@
aspekt
tägliche
dy@@
featuring
jenige
gp@@
tigen
ü@@
˛
stücke
況
obj@@
rail@@
光@@
mmt
bir@@
ी
promo@@
eins
ausstattung
authorit@@
scope
argent@@
enjoyable
rü@@
hôtel
celebrate
hervorragend
pup@@
lass
alyst@@
hren
π
secure
tenden
experi@@
egal
ť@@
evi@@
ussel@@
ähnlich
aufs@@
relation
ünf@@
südlich
appear
whereby
provisions
eco-@@
ls
ď@@
and-@@
additives
cre@@
ide
exqu@@
チ@@
now
ausgenommen
eister@@
going
mmer
wo@@
traditionally
poorer
führten
lend
dering
ando
notwendigen
bey
vac
internetseiten
arium
zumeist
pricing
dienst
ner
freiheit
nimmt
grenzüberschreitende
assu
türkei
backdrop
朝@@
geg@@
bereitgestellt
晏@@
really
zukünf@@
etry
macroeconomic
osze
unternehmer@@
erdgeschoss
cos@@
typen
tub
ቶ@@
新
icecat
testen
vernicht@@
eren
char@@
ditions
veto
vorsitzende
flag@@
täglichen
seri@@
icop@@
amount
low
dahingehend
eigen@@
applied
anderes
ehren
leb
deposits
manufactured
plate
datent@@
marken
confined
treatment
ẳ@@
static
wer
öffnete
regulation
mental

erfolgrei@@
erforder@@
bathing
powered
parish
legi@@
自@@
amin
ml-@@
essed
city@@
ian
jour@@
trees
verantwortlichkeit
constant
ative
gesetzlich
gangenen
wto
student
hindern
verfol@@
lisbon
enterprises
weak
itan@@
greatest
itate
zing
schon@@
1972
denti@@
position@@
temperatur@@
relaxation
summ@@
trifft
prec@@
charts
plugin
reduzieren
confidential
israeli
chest@@
ato
tastat@@
js
wage
wechsel@@
fall
aming
spe@@
grenzt
timme
无@@
massi
february
procedural
forschungs@@
innovativen
entweder
atmosphäre
hinsichtlich
späteren
falsch
azz@@
atory
contain
sincer@@
mean
ambiance
benjamin
regarding
ifa
punishment
sea
metro@@
seits
larger
umbr@@
wille
demonstration
arab
kreis
undertaking
verträge
conveni@@
hans
ī
ex@@
33@@
dioxide
rechnung
bill@@
anche
environment
त@@
5.000
pine
projekts
ergänz@@
übertrag@@
verwen@@
ückt
widri@@
kreis@@
strengthen
spezialitäten
ớ@@
kde
schnitt@@
foto@@
wäh@@
ätigkeit
strand
ז
un
unbe@@
ferrero-@@
see@@
disziplin@@
opro@@
timing
ኣ@@
হ
reaction
د
destru@@
adding
strive
korrigiert
balcony
angst
zü@@
meinungen
wor@@
ured
super
calcul@@
meaning@@
sha@@
rak@@
html
trips
modify
gely
securities
örtlichen
victim
이@@
gesetzte
16
effects
grundsätzliche
madeira
uses
እ@@
brilliant
lied
lehnt
vation
sagt
trol@@
it-@@
around
stream@@
freedoms
bus@@
ק
bestellt
classi@@
vermitt@@
roll
§
souveränität
wettbewerbs@@
planeten
tropical
idly
looks
meets
lec@@
staat@@
80
solid
г@@
legitimität
anies
gipfel@@
dich
rif@@
palestine
brush
eling
samsung
institutionen
timent
programmen
1999
ens@@
definiert
weaker
ash@@
aspekten
falsche
航
val
clause
fot@@
њ
diction
balancing
of@@
einzelner
interess@@
anerk@@
equi@@
hohes
spart
acceler@@
ordnungsgemä@@
jean
gekrön@@
ʀ@@
commem@@
enforce
ür@@
strafrecht@@
wid@@
aktion@@
logical
1970
1965
ถ@@
standard@@
fi@@
ophobia
anybody
effectiv@@
hectares
protecting
resume
dauerhaft
recreational
green@@
alising
atin@@
announ@@
retail
scra@@
pac@@
gung
wu@@
discovery
kl@@
mediterran@@
angenehmen
strong
ausweitung
credits
sozialer
vac@@
ร@@
nicely
fähigen
selts@@
設@@
estri@@
gängigen
identifizieren
willing
emis@@
lobby
längerung
nomin@@
-hotel
provi@@
mix@@
currency
owing
vern@@
zeitig
terly
displaced
gross@@
direc@@
schiff
präsentieren
icht
glän@@
ay-@@
dlich
pharma@@
ausflüge
kämpfen
endence
ersetzen
leisure
bekanntlich
peripheral
including
or
sources
accomm@@
ition
240
klimawandel
nachfol@@
hil@@
lösungen
itself
verwendete
korrekte
vorgesch@@
emission@@
in@@
läubi@@
stimulus
maßen
crimes
animal
伏@@
entails
eals
tlich
ָ@@
ブ@@
በ@@
schaftlicher
nunmehr
own-@@
cs@@
regionalen
achte
uru
gano
restlichen
barack
15th
∑
thoughts
value
öh@@
motto
konzentr@@
forec@@
chat@@
provision
airline
wenigen
ständen
っ
rimini
k.
cd
tolerance
themen
abgestimm@@
surrounding
chicago
top-@@
ris@@
außerhalb
角
insert
suitable
cub@@
prüf@@
¨
stations
müssen
klassi@@
studies
reinig@@
target@@
ausgegeben
ē
nato-@@
belangt
arbitr@@
stre@@
ausführung
lossenen
volk@@
langer
substitute
fighting
aults
sierra
piazza
wn
dan
angelegt
nothing
lives
entzieht
estate
laufenden
eted
faßt
prak@@
origin@@
ha
11th
schrift@@
nachfolgend
图@@
bels
roots
membership
bürger
enthält
eurex
donor
encounter@@
gru
neun@@
establishment
terr@@
sun@@
energieversorgung
sofort
suppl@@
eld
ʒ
earned
demanding
vous
2nd
altern@@
tor@@
计
original@@
tag
diameter
ple
explain
euert
gin
vot@@
equ
water
entscheidungen
ausfallen
franç@@
integrate
zard
erweisen
kontinuierliche
hopes
poland
distor@@
window@@
ters
ables
ώ
üb@@
pt@@
り@@
gkeiten
erei@@
stärk@@
katastrophen@@
prepared
bac@@
künstler@@
tsch@@
warmen
smallest
weisungen
zufällig
afgh@@
explanation
single
ê@@
treating
übersetz@@
pers@@
怡@@
∀
nächstes
propri
ing@@
flächen
noble
bach
inhab@@
schmu@@
み
wie@@
atures
viertel
their
isierten
ỏ@@
pictur@@
schools
emu
pap@@
ಯ@@
aland
obtained
wasser
notes
clo@@
porte
jahrzeh@@
ā
spunkt
preisen
reserv@@
mysq@@
required
ests
describes
xenophobia
pfe
real-@@
stars
deiner
energi
47
ố@@
nar@@
gentlemen
litauen
goal
hongkong
deutschlands
eigen
rows
selek@@
124
auseinandersetzungen
ნ@@
e.g.
missing
ster@@
ọ@@
verliert
strände
down@@
il@@
oblig@@
ط
künstlern
graphical
ausstellung
helped
klu
ging
stellt
tlichen
fabri
ul@@
gradually
ept@@
wiederaufbau
ieb@@
exzellenten
gefasst
teeth
third
beschreiben
läufe
steri@@
backing
ankün@@
einheiten
envisaged
radiation
presentation
ィ@@
liest
menade
denk@@
twen@@
eligi
danach
herrscht
tionality
lanka
hostel@@
kommission
begangen
militär
renovierte
greece
undet
bottle
ோ@@
einschlägigen
indire@@
anwes@@
enterprise
oeu@@
las@@
send
bro@@
arbeitsplätze
centres
potential
where
constraints
<pad>
乏@@
medicine
build
fice
budsman
samen
geschaff@@
strengen
kunststoff@@
徳
dik@@
wächst
alit@@
gescheh@@
wort
一@@
ei
32@@
ina
niemals
spät@@
grund
➔
shirt
means
faster
ader
handling
frequently
tunisia
nearest
representing
provided
tigte
klima
ssel
weisen
vorbereitungen
umen@@
erasmus
ف
ook@@
hing
begründung
cription
confirm
и@@
russlands
3.5
success
usi@@
校
drawing
eric@@
out-@@
芝
south-@@
produktiv
meinung
ranges
schatten
sicherlich
bö
fülle
urs@@
july
komponenten
eastern
nearby
1975
ausgerichtet
soon
rid@@
beliebtesten
mentioned
谢
fußball@@
lining
ammen@@
einfluß
150
autom@@
verwandeln
adult
vorwiegend
ع@@
locked
kleinste
allen
eigentum
sev@@
lingu@@
tö@@
@@
amend
isch-@@
weltweite
spitzen@@
it
enza
automaten
verschlechtert
büchern
combinations
höh@@
würdig
ain@@
♠
】
geltenden
gather
shine
ology
konzept
ched
tourists
tragt
nur
treib@@
schlechte
ны
außen@@
uniform
demonstrationen
zeitige
ruins
db@@
zugän@@
trade@@
mask
wege
difficulty
sta@@
gesti@@
tungs@@
schwanger@@
emerging
國@@
expecting
secon@@
2002
ierend
äußert
schön
ی
esthouse
angepasst
朱@@
cli@@
freunde
rout@@
ly@@
amongst
年
ⁿ
och
erweise
please
wechs@@
umgehen
that
put
altung
festgelegt
komfort@@
agten
unto
message
none
eeded
behindertenfreundliche
konferenzen
tennis@@
auferlegt
regret
datenbank
view@@
◇
iv@@
pp@@
myst@@
alt
klaren
hne
golden
hochschulen
software
bicy@@
unabhängiger
breaking
oub@@
場@@
veränderte
ausschusses
妻@@
russen
ć
arbeit
oasis
5@@
komfort
eckt
violation
四
fotos
ヨ@@
justice
jag@@
convert
溝@@
exposure
alte
irische
fun
ow
fäl@@
71
findest
publish
verstöße
vocation
寶
terms
gv@@
ast
general@@
dimensionen
uten@@
enthusiastic
autorität
љ@@
optional
broadly
terri@@
tok@@
environ@@
holland
tuscany
straightforward
mäh@@
preference
ihrer
記@@
later@@
prozess@@
einander
regist@@
erfüllt
developer
your
einiger
gef@@
respects
empfängt
repräsent@@
marktwirtschaft
voneinander
wert@@
plur@@
rechn@@
hochwertigen
krankenhaus
pet
marriage
etri@@
telef@@
regelung
aille
1971
best-@@
ki@@
interfaces
acht@@
aggreg@@
ate-@@
acking
ceiling
rehabilit@@
netze
atte
ip
complaint
cal@@
bor@@
has
dog@@
ckets
jury
ghter
wishes
declare
anleihen
plätzen
beschleun@@
install@@
boden
innerhalb
ständigen
forest
iring
sovereignty
pro@@
imports
fünf
failing
eingebracht
aufbauen
maßnahmen
linux-@@
tnisse
2.4
verab@@
keiten
colour
stefan
befehl
prac@@
milan
té
layer
vierten
目
millennium
portra@@
建@@
2@@
empire
volcan@@
experim@@
bezahl@@
essence
writers
meiner
accessing
discrimin@@
annehmlichkeiten
cookie
allocated
yees
durchzusetzen
roff@@
京
lei@@
壊@@
diagnosis
ÿ@@
gegebenheiten
gebucht
ete
atively
mar
airs
ister
三
proportion@@
stable
systemen
開@@
demokratische
mac@@
exi@@
ademie
rezep@@
designed
dependence
sekt@@
trennen
crisis
interference
aktionäre
lanz@@
lok@@
nament
要@@
allocation
institute
lithuania
besei@@
gran
ease
minder@@
tea
果@@
documented
reib@@
glu
intu@@
wichts
securing
beiträge
ser
茜
ground
bewertung
weekend
partly
beweise
beträgt
sh@@
junger
lov@@
gates
rieb@@
äqu@@
chemische
idee
similar
helpful
angewendet
天
ie@@
yl@@
constitutional
konvention@@
ernährungs@@
unique
underlying
nice
elier
leave
었@@
minister
once
bibliotheken
hardly
margin
olas
wärme
pharmaceu@@
idable
service-@@
infolge
safeguarding
verarbeiten
10.00
peaceful
derzeitigen
lierung
trieben
passieren
pedestrian
errors
ücks@@
again
ational
meant
veau
hd@@
eus

prices
proxim@@
honest
protokoll
사
schwi@@
11-@@
niti
bour@@
gesu@@
hours
gö@@
cker@@
methods
charac@@
compl@@
佰
index
unification
charge
nd
yar@@
cher@@
zucker
ato@@
ungarn
olymp@@
correspond
resign@@
intensiver
visibility
eingeladen
wächt
wunderschöne
ostse@@
votes
negoti@@
bott@@
attacked
außen
poss@@
run@@
zulassung
her
bay
ney
bezieht
errichtet
hol@@
ener
kloster
kilomet@@
dent@@
les
gestalt@@
anreize
starker
km
ungsver@@
automotive
wies
scores
three
tert
handels-
lap@@
lower
meas@@
lege
zierung
deliver@@
kunst
geschehen
gar
powers
erhöhung
tiefgreif@@
getä@@
sphäre
thomas
caf@@
medizinische
orities
considerably
scheinbar
る@@
umfangreiche
etts
bürgern
終@@
艳@@
strategie
eg
来
adt
call@@
press@@
aktiver
heute
yp
radik@@
timet@@
indul@@
fall@@
à-@@
überein@@
shows
ausgang
記
seat
wertsch@@
tragedy
insel
normalerweise
owner
kompletten
westliche
frattini
ange@@
ck
ona
iges
rem
parliament
standardi@@
efe
seattle
derung
hinein
nord
nobody
veröffentlichung
dvds
kopie
nik
requires
iel@@
ilo
ladies
日@@
浦
populi
gerechten
ankunft
ulsory
erster
aufmerks@@
gebraucht
abzuschließen
correc@@
gesto@@
capacities
geben
betä@@
ground@@
accessories
wis@@
grafischen
equally
bestimm@@
allzu
ee
höher@@
behaviour
sensibili@@
brutto@@
quell@@
lösungs@@
sondern
trend
ffel
kontrol@@
angeschlossen
tres
among
tri@@
kuk@@
psycho@@
mist@@
celebrated
ia
etc
gedank@@
mäch@@
hospitals
nürnberg
다
2
ट@@
esischen
educ
danger
küche
∞
pays
ˌ@@
denkt
zivi@@
richtete
competitiveness
schwer@@
hir@@
eingesetzt
mbol
tal@@
portu
finde
უ@@
tour@@
wish
theater@@
kle@@
picked
ế
gäbe
bour
died
validity
terrace
siv
burg
entative
spass
directives
geplant
a
founder
obligations
ban@@
bestandteile
accounts
eni@@
maßstäbe
chairs
druck@@
fell
native
群
tuesday
karl
substantially
stan
}
ί
other
til
ヌ@@
ц@@
yacht
indirect
ځ@@
work@@
fühlen
home
thalten
ɑ
bestimmtes
eyes
静@@
angt
modernisierung
rate
pick
four
markt
penalties
░
kernkraft@@
packt
fts
pleasure
sector
co.
bae
管@@
defects
twitter
inneren
yet
klassen
stationen
measur@@
otro@@
sms
pot
partner
subj@@
heimat@@
botschaft
idyl@@
ungstechnik
weit@@
adly
ermitt@@
ř
ermutigen
feet
chteten
worrying
bedienen
ṛ@@
friedrich
仲
main@@
zit@@
ural
gebühr
shoes
kosten
äufer
1997
leads
代@@
anting
regarded
betrieben
therap@@
endlich
presence
共@@
positively
内@@
5.@@
produces
unk@@
genutz@@
grös@@
gn
ο@@
α
supplying
taxpayers
liecht@@
verein@@
ane@@
erhöhten
sell@@
unregelmäßigkeiten
变@@
strengthening
broke
fehlende
kristall@@
ausgelegt
strategischen
አ
recognised
resistant
70
nings
produkten
sard@@
tie
wach@@
21st
daran
shaping
aussprechen
unigen
ysi
settings
pos@@
aufgehoben
li@@
mä@@
kat
hung
genuinely
ziplin
brauchen
risi@@
nahrungsmittel
definierte
ording
pavi@@
liberalen
verfas@@
integrieren
requests
emark
niens
roh@@
keyn@@
indonesia
shadow
associations
umin@@
entstehenden
zubehör
explan@@
delicate
spec
wirtschaftlichen
女
former
ommiss@@
2006
kosovo
pity
blauen
products
note
anpassung
besticht
$
profiles
อ@@
nachts
marokko
himself
weapon
schritte
krak@@
allmählich
bevorzugen
em
alpha
ξ@@
seems
liche
recent
aufweisen
hatte
westlichen
herz
lossene
globalen
teilte
ion
賀@@
retention
barón
extremis@@
loyd
pri@@
gord@@
real
resi@@
milliarden
ref
dah@@
dir@@
erwar@@
folgt
durchsetzung
eingebunden
amon@@
allgemeine
zep@@
anzen
testing
secular
animals
enda
sugar
reformen
5000
übernommen
bug@@
umweltschutz
skri@@
medium-@@
sman
aufgeben
4000
terror
ф
acp
¦
holz@@
moving
propaganda
salvador
canon
sogar
wiederein@@
vise
kohäsionsfonds
loved
produ@@
poor
geb@@
endet
さ@@
დ@@
eta
greenhouse
besti@@
布@@
ient
ergy
stanti
plan@@
gerung
ingo
infrastrukturen
begeist@@
ase
liste
ce
migrations@@
buchung
aire
pvc
renewal
dör@@
folgenden
virtue
turning
esse
hir
enny
ย
tends
ー@@
7
handed
owe
rag@@
unzähligen
deciding
鵜@@
巨@@
emissions@@
ma@@
ز@@
erwähnt
rel
debi@@
schiebung
eigener
off
urants
echter
gestiegen
eigenem
einsatz
co2
damaging
version
g20
applicants
prime
quart@@
woch
etzen
；
寸@@
mention
blair
climb
heran@@
wr@@
sinn
bited
präsidentschafts@@
hub@@
pread
substance
`
--
infineon
icip@@
바@@
am
₩
identical
buchen
mäßigkeit
priori@@
blich
service@@
yo
abschluß
种
pc-@@
glieder@@
citizens
ausflug
tice
fische
undermine
vertrauens@@
philipp@@
alo@@
ຄ@@
transl@@
tivi@@
renommierten
abfahrt
vielfältigen
affected
turnover
empfiehlt
agua
spricht
zerstören
micro-@@
mag@@
wesentlicher
indian
ans
bound
tium
theit
zurückzuführen
konzeption
ب
gu@@
nötig
ausfuhr@@
evil
delivered
beobachtet
gewähr
stän@@
förder@@
attempting
erziehung
०@@
remedy
alliance
italiens
dencies
wahrnehmen
alizing
di
promin@@
eili
building
untersuchen
brüssel
tochter@@
st.@@
zungen
cost-@@
künftig
beifall
mehrere
meals
partnerschaften
charter
angenehme
qualify
immer@@
pleasant
spot@@
außer@@
typical
schon
ehrten
eo
ambass@@
del@@
fahrung
ody
providers
dating
eiffel
応
kus@@
measuring
trau@@
queren
geschnei@@
highligh@@
思
speakers
近@@
1959
edin@@
stras@@
pending
da
legisl@@
globe
artikel
professional
everything
renew@@
erweiter@@
acier
verhandeln
arbeitete
analy@@
improved
englischen
division
badewanne
auflage
-t@@
psych@@
bru
handel@@
mani@@
zusätzlichen
gebau@@
sac@@
art@@
merits
monti
vorge@@
ferien
erc@@
evangel@@
04.@@
summary
teilnehmer@@
signing
revi@@
removing
versucht
hatten
amendments
regelungen
griech@@
ō
fontaine
labor
dach
outlined
learnt
mittags
iran
mex@@
fairen
wm@@
azione
anschließend
zuverlässig
benach@@
talk
wirkungen
selected
autumn
einschätzung
く@@
elementen
centr@@
riebe
dena
overseas
¾
sus
ames
suff@@
slave
enberg
34@@
asks
bezü@@
calculations
kultureller
adaptation
szene
alis@@
appen
stopped
gedacht
gegeben
箕@@
nic@@
öss@@
orch@@
laufen
quiet@@
glet@@
vermittlungs@@
take
infin@@
lieb
excluded
lokal
wissenschaftler
frucht@@
发
charman@@
firefox
seeking
rindfleisch
beeindruckenden
tur
交
strai@@
unternehm@@
australi@@
union
louvre
ト
oft
tick@@
ations
ged@@
berichtet
unbesch@@
guarant@@
administrator
wirkungs@@
eries
inspir@@
entscheidungsträger
resolve
1.@@
system@@
uters
ütten
mb
komplexer
sites
nationale
ratio
kohle
₂
lehren
iten
coherent
packages
concerning
bezeichnung
勢
argue
verbinden
rats
mercure
entschließung
brazil
used
gelingen
thouse
effizi@@
federal
3d-@@
iz
uta
plätze
fahrrad
german-@@
or-@@
okol@@
紅@@
october
defining
dness
tiny
inet
spazi@@
mannheim
euro
along
hauptstadt
perat@@
reg@@
oud
thousands
gehört
academ@@
delic@@
tieth
2010
opport@@
1950
soll
destinations
nischer
champion
verhindern
geln
schrieb
themati@@
გ@@
采@@
competition
fishermen
freunden
sions
komment@@
κ
types
vacc@@
customs
direkte
centuries
ention
ә
demo
sap
chron@@
enables
fok@@
klingen
recognized
verpackungs@@
mittelstän@@
kontak@@
fangs
bedenken
uli@@
api
saudi@@
dorf
nationaler
relate
submitted
kunde
25
gelegentlich
analog
attrac@@
virus
dened
sobald
ffs
us
inu
serial
benj@@
end
zusätzliche
bearing
product
booth
katastrophe
liferation
gentle
rehab@@
ο
意
entes
ง@@
teste
wher@@
shil@@
aar@@
而@@
passes
anspruchsvolle
berühmt
colleague
折
estimate
contribut@@
ユ@@
telek@@
zunehmen
shore
räumlichkeiten
zeitschrift
entwick@@
verknüpfung
reibt
propri@@
bild@@
zau@@
ò@@
absolute
global
living
schwierigkeiten
wanting
bedeut@@
kontakt@@
wieg@@
area
ledge
te@@
ansch@@
gravier@@
ganz
formation
erup@@
evidence
boys
oberhalb
geschätz@@
dauert
ßig
dc@@
opath@@
gezi@@
pn@@
zurückkommen
aro@@
sehe
governments
bit@@
anst@@
dun@@
iors
se-@@
regi@@
heav@@
rich@@
nachzudenken
völker
abwesenheit
welt@@
aro
vierte
sexuelle
tem@@
tagungs@@
journey
impro@@
rus
eos
pixel
strukturellen
erde
korrekt
nehmen
einzig
phi@@
legislative
ni@@
egenheit
eller
artier
羲
griechische
？
mediterranean
befasst
expression
jährige
kommand@@
bereitung
largely
icking
コ@@
straßen
tausend
obtain
punkt@@
gewählt
haupt
rejected
한
hz
wünsche
distortion
maj@@
norwegen
stoff
enzi@@
楼
spannung
australian
statut@@
ansprechpartner
border
leiter
acrobat
blue
dh@@
profitable
tight
travel
bike
said
bot
jung@@
internal
compo@@
lissabon
ends
threat@@
prints
attach@@
ር
tural
ׁ@@
grafik
becken
breach
deuten
posite
purch@@
geb
主@@
mercosur
dil@@
getränke
assessments
gehörte
brunnen
hau@@
appalling
ekten
marken@@
开@@
subsidi@@
tail@@
egelung
ello
zivilisten
vielsei@@
ursprünglichen
談
bass@@
freiheiten
bse-@@
yl
licenses
orio
möglich@@

lektu@@
mark@@
lern
russia
wasn
knü@@
networking
庫
cides
magazine
fitness@@
light@@
helsinki
spezialisten
aufbau
enor@@
collected
itätsprin@@
dish@@
ordnungsgemäße
fig
ook
handel
parents
islamischen
tennis
sian
teilnehmen
bade@@
lamp@@
löhne
iss@@
brother
mu
achieve
großzügig
ation@@
statistischen
anerkannt
gestalten
räsi@@
uter
verbesserten
veter@@
tune
works
dered
hunder@@
mysql
arbeit@@
naz@@
religions@@
garantie
substanti@@
bestraft
fisheries
aqu@@
gourmet
urheber@@
fire
bulgarian
ind@@
regimes
lediglich
bank@@
idea
chips
liquidity
kommentare
sorg@@
˙
etze
rural
inzwischen
sept@@
wachsende
gebor@@
apos@@
konkurren@@
attentive
altet
ck@@
nes@@
rap@@
gar@@
actions
thr@@
instrument
perfek@@
literature
funded
tlicher
商
feuer
palette
frequ@@
ei@@
packing
heutige
erhaltung
overview
agree
obs@@
findet
風@@
色@@
23.@@
ם
schlüssel
ft@@
spark@@
meines
veranstaltungs@@
engineer
speci@@
hubschrau@@
ischen@@
emb@@
wissens@@
tonnes
acon
funk
铭@@
banana
acquis
darunter
shuttle
hindernisse
schien
60
ausschlag@@
optionen
kali@@
authorities
criticism
wonach
ppe-@@
ago@@
yards
ection
ween
schad@@
-k@@
anhang
partnern
痛@@
verzögerung
都@@
eichert
ė
も
kommerzielle
einsehen
ſ@@
lay
throughout
casa
erbringen
aufmerksam
子
bereiche
selbstverständlich
zimmerservice
haushalts
palacio
ereignis
zustimmen
geschlossen@@
contam@@
beschädigt
wanted
shaped
资@@
werken
warmly
prohibited
vergleich@@
wa@@
prüfung
schaftlich
interim
baro@@
alist
raising
istics
bali
1957
six-@@
aboard
显@@
----@@
escal@@
zoll@@
laid
investment@@
rah
ations@@
clearer
external
emandem
irable
wertes
liter@@
市@@
eigentums
dün@@
strebt
gold@@
construction
recently
verweist
accelerate
posedly
steigen@@
musical
ia@@
kredit@@
indirekt
gutes
process@@
找@@
nachhaltigkeit
team
े@@
lements
spezif@@
ή
format
geseh@@
javascript
tly
rauch
prompt
enshr@@
reinforce
uri@@
shortly
bad
place
jü@@
an
studenten
erzi
疫
eira
asonic
uzzi
geniessen
qualifizierter
essing
schutz@@
kal@@
etrie
sound@@
sia
distances
sonstigen
­
ю@@
una
begrenzung
industries
enthusiasm
ገ@@
einrichten
ás
chi
vergangen@@
gno@@
unless
reach
ate
verfü@@
dated
of-@@
hervorzuheben
olo@@
admission
aspects
trieb@@
anzahlung
ähnliche
advantage
immediate
ng@@
urement
erhol@@
verzeich@@
ze
errei@@
bedien@@
hoch
befreien
contribution
aktivieren
bestand
ktur
ford
may@@
bus
mitgeteilt
haut@@
beugung
ismus@@
plane
junk@@
angemess@@
reicher
casting
don@@
prove
kurse
ligence
bahn@@
mar@@
更@@
zir@@
kamen
optimal
ograph
ineffective
ichte
anmelden
bestätigung
fügen
malay@@
operates
ämpfen
box@@
apparently
nachtleben
wine
di@@
mindestens
ungal@@
entreprene@@
を@@
destination
anch@@
θ
fossi@@
beim
bag
massages
consoli@@
eingereicht
mw@@
abschließen
se
fleisch@@
ammen
directory
prozent
families
0@@
wenig@@
oram@@
response
towers
wider@@
kath@@
jährigen
veranstaltungen
fracht@@
schne@@
ml@@
explore
vorschläge
ergie
eso
zumal
herkömmlichen
etagen
ausgelöst
schüler@@
recomm@@
stuffs
mathemati@@
2009
cryp@@
fault
ʐ
buff@@
anlage@@
machen
conciliation
esch
mess@@
respon@@
denz
effectiveness
tend
erschi@@
folgendes
verfassung
verzichtet
einträge
umsatz@@
whit@@
violations
relevant
quickly
clau@@
urch
gerechnet
cocktails
hands
docum@@
gebend
ben@@
basierend
erfolgreiche
beyond
require@@
cash
foreign@@
egyptian
kland
verantwortlichen
miss
indicator
besch@@
fahrzeug@@
wellness@@
expor@@
realise
zuwanderung
ausnahme
possible
verkäufer
out@@
eding
holl@@
örder@@
beweis
autorit@@
low@@
dau
neither
kok@@
conveniently
ude
beendigung
coherence
wel@@
differenti@@
bedienung
ed-@@
entfernt
ot-@@
keller
forum
inser@@
six
인@@
fahrer
thursday
cure
-seite
gleicher
integration
sou@@
esh@@
bread
atemberaubenden
him
dungen
gilt
miet@@
nichts
fragm@@
lov
ข@@
interaction
状@@
beschäf@@
köst@@
ö@@
life
tür@@
diar@@
authorised
wobei
harte
niert
processed
breath@@
verbindlichen
humanitarian
heil@@
reforms
aufgestellt
paket@@
manipul@@
se@@
ÿ
面@@
stages
anniversary
wurf
leser
rechtsan@@
ù@@
banglad@@
़
organise
verschlüssel@@
lear@@
operieren
notice
abo@@
enfalls
dien@@
ace
bestä@@
functionality
vinci
einheit
erschien
vorzu@@
muy
requesting
ultur
linken
ared
ortschaft
vehic@@
blu
halten@@
secretary
compare
befeh@@
solution
vieren
contradiction
sorgfäl@@
recht@@
tical
bsp
davi@@
livel@@
überwunden
ŏ@@
schedul@@
glichen
oxford
讯
gered
trockner
โ@@
sail@@
related
illegalen
thor@@
umfang@@
premier
rö@@
aufge@@
.m
solidarität
伸@@
comforts
fühl
isine
netz@@
dienstleister
eingeräumt
expected
gnu
stilvolle
swif@@
filled
prevents
tissue
vernünftig
vorzüge
dner
臣@@
mili
christ@@
language
gehäuse

intellectual
ausschüsse
ų@@
zeich@@
mili@@
vietnam
betreiben
silence
verlauf
status
schungen
na
successfully
mitting
ardo
schönheit
schwach
kreativen
inal
krieg@@
beverages
fundamentally
break@@
hygi@@
pose
schli@@
drum
milosevic
enster
information
imp@@
nami@@
zeichneten
präsentation
asses
openly
fahr@@
【
gebnis
chio
verkehrs
früher
strei
wander@@
reichend
equal
organis@@
flus@@
gäste@@
kandi@@
zusatz@@
bean@@
福@@
catering
phot@@
kooperations@@
吳@@
autonomous
inch
benden
optical
astri
erwiesen
technische
aty
admir@@
ebenfalls
prepare
isc@@
kw
canadian
innenhof
äst@@
emberg
historische
elek@@
onable
het
diensten
purpose
distributors
create
oster@@
jahrel@@
behält
dl@@
შ@@
indeed
konflikten
prin@@
loses
gesamte
besitz@@
gik
anregungen
adress@@
linux
璐
umwelt
こ
lt@@
etten
adise
evans
oods
antrag
affir@@
players
grafi@@
眼@@
ฝ@@
anbietet
bettw@@
verwaltung
wirtschafts-
aled
ova
versand
lei
dedic@@
weitergegeben
strange
rupp@@
bedanken
verlangt
weise
gewalt
knowing
premi@@
ouldn
interviews
scheint
conjunction
bute
january
kompet@@
zeitpunkt
ℓ@@
arbeitslosen@@
vielmehr
concentrate
신@@
kn@@
evaluate
singap@@
räu@@
this
müsste
erhoben
con@@
erhebung
draußen
請
zug@@
symb@@
aufgeführt
studium
som@@
ue@@
helsin@@
gemütlichen
ameri@@
margin@@
tic
stellungnahme
प@@
schlu
bringen
hing@@
vollem
timber
entstehen
existenz
ziplin@@
civilian
ु@@
ulations
serbia
forms
hinweisen
hour
falt
codes
vou@@
tradition
px@@
beamten
exec
royal
gerei@@
sues
informal
block
stabilen
kolum@@
schön@@
单@@
加
manner
anded
duty
koalition
kinds
korea
gut@@
б@@
casino
sicheren
höhep@@
k
annehmen
dges
otechn@@
encryption
entri
campo
different
▲
empfehlen
added
riteri@@
freiem
土@@
clothes
gegeben@@
wofür
populations
angestellten
bat
広@@
anhaltenden
╞
peti
nden
katastrophal@@
mein
mont
symbole
reduction
ish@@
←
chin@@
fris@@
regional@@
eingabe
deployment
cn@@
ordneten
equality
磨@@
upper
lösen
wich
ziehungs@@
editing
coher@@
bekanntesten
ursachen
percussions
chart
packen
gibr@@
original
aufmerksamkeit
fuer
asa
tum
づ
evolu@@
tige
proves
palestinian
ore
hitler
consider@@
übereinstimmung
swis@@
workshop
gebene
є@@
i.
ppen@@
flicht
classical
ght-@@
riffen
theater
kroatien
breaks
baltic
uel
wirft
differences
vollständigkeit
maximum
ails
stattgefunden
tam@@
modernen
überschwemm@@
week@@
stoß
jahrhundert
showers
höchst
korrigieren
dank@@
ate@@
verbindlich
etzung
konkurri@@
gefordert
正@@
sectors
johann@@
schlei@@
tax
history
belarus
caused
blicherweise
人
ameri
topics
voic@@
believes
thank
ك
shire
urred
präsentiert
fahrten
barcelona
inhalten
lighting
唐
keit@@
แ@@
beeindruckende
marketing
subway
einfachen
malware
konsult@@
gps
》
vorbereiten
avoi@@
formats
remembered
14.@@
aktualisiert
ү@@
ing
inqu@@
eisen@@
phrase
cafés
refined
suppliers
sufficient
behinderung
roof
streichen
flora
leit@@
ohlen
stained
mbh
的
york
elung
compact
engen
hamburg
bisch@@
more
ft
min
dumping
ay@@
maison
lia
ursprün@@
capaci@@
simplify
よ@@
entlang
bookings
invent@@
überschrei@@
acci@@
ô@@
ising
schlussel@@
spy@@
auch
经@@
background
flächen@@
initiativen
sensors
plans
splen@@
intelligente
beziehungen
returned
13.@@
trag
ie-@@
mother
addition
ṳ@@
windows
surve@@
abstimmungen
verstärkt
medical
geschäfts-
广@@
vermitteln
garantiert
historischer
rage
relating
folk
distinguish
schrau@@
gra@@
peak
automated
-in-@@
geändert
orium
lossen
empfänger
1973
dged
burg-@@
level
graphics
persönliches
rigor@@
transported
zei@@
hilfe
mehr@@
mark
oder
role
justiz
arr@@
wal@@
bitions
rear
53
reds
reform
aufrecht
schloss
atives
racism
ausgedrückt
cryst@@
ر
gewünscht
ency
veranst@@
rollen
anrei@@
cal
blatt
schlafen
solving
ラ
launch
academic
avoid
erwor@@
textil@@
仁@@
話
standort
producers
ix@@
quantities
国@@
vermin@@
tied
rum
unterliegen
orienti
fähigkeit
trug
answers
criterion
bemerken
passi
besuch
vorjahr
flughaf@@
emerged
高@@
fortschritt
gewidmet
preserved
regi
vez
selecting
bürgerlichen
ergeb@@
ites
two
details
jungen
‑
vater
strategisch
osteuropäischen
bsp@@
sphase
applicant
repression
ält
placed
tari@@
cle@@
rings
erforschung
ekt
mittwoch
ruption
42
simultane@@
pole
ं@@
maps
gründer
b.@@
employ@@
branchen
zufriedenheit
sustainability
bird
c
aside
silver
doors
آ@@
ss
tar@@
�
you
guantánam@@
1966
kabel@@
consideration
aries
towns
gewöhnliche
beachtet
limits
hyth@@
gesichert
recover
drücklich
ተ@@
showing

rt@@
ulated
isten
installiert
stom@@
medien
systematisch
lieferung
geschlagen
เ@@
auszur@@
ó
sekunden
practices
verteilt
wertpapier@@
sme@@
promotion
eggs
cc@@
kreativ@@
cable
iry
läng@@
stim@@
sammlung
mutually
tives
moral@@
serviert
selber
conductor
standardis@@
conn@@
leuten
näch@@
bemerk@@
offensive
vere
fant@@
uit@@
receive
wir@@
constructive
dency
dustri
guest@@
reconstruction
abri
西
vacation
ध@@
fasc@@
shape
ambitious
straßburg
kap@@
bewegt
fundamental
controller
größ@@
vis
äum@@
steht
mittelpunkt
cor@@
archer
datenschutz@@
sowie
warning
nec
whereas
verify
湖
か
200@@
höchsten
riffe
aim@@
rachte
tica
schaden
fischerei@@
inv@@
fortsetzung
bedürf@@
ম@@
usually
roof@@
gemä@@
läßlich
land@@
istanbul
chef@@
steuer@@
menschenrechts@@
heading
edes
österreichs
gesonder@@
feeds
emission
dokument
ນ
grünen
erfreu@@
gefolgt
spazi
innocent
µ@@
clarification
楽@@
substanz
rises
size
läuft
sooner
sail
netes
available
unemployment
01
buses
eingang
administr@@
exceptions
geführte
pool
bod@@
z
audit
ú
stabil
andro@@
verfolgt
derer
aved
kb
layed
führ@@
specialist
sister
ҙ@@
negl@@
glas
ut
leys
kten
bureaucratic
株@@
tigem
logic
cotton
partnerschaft
geburts@@
价
ɒ@@
künften
schmi@@
überwälti@@
erläutert
tende
hamas
nahezu
enkung
ons@@
oo
rom@@
überflü@@
tunes
impossible
hat
intends
श
nützlich
transpar@@
terranean
verhältnisse
red@@
체@@
ouver@@
ehemalige
麩@@
compani@@
technology
devi@@
ähi@@
good@@
娃
favorite
heinrich
gestei@@
independent
kampf@@
interessiert
doh@@
scape
variables
vermeidung
presi@@
munich
dless
kostenfreien
ysi@@
局@@
pflanzen@@
corresponds
culture
ى
gerichtete
surpris@@
lief@@
tv
italia
kin@@
decide
liers
nieren
words
alde
referendum
glu@@
dusche
ettbewer@@
älteren
front
laser
ج
studied
ihr
thermal@@
servern
automobil@@
df
messungen
检@@
script
╚
jesus
geführten
vorgänge
edge
breit
kommando
entstand
berechtigte
fft
end@@
arbeiteten
servants
ู
安@@
kongres@@
unentgel@@
to@@
verfahren
coh@@
change
fam@@
diesmal
ungsp@@
problemlos
treated
列
anten@@
gehörige
clear
disappear
kanz@@
eben
fied
fahrens
徳@@
geographi@@
beherrscht
gelten
child@@
anges@@
treat
nehmenden
strike
至@@
wälte
gging
prozeß
issues
zones
sation
reserved
ї
niedriger
clou@@
frühere
manages
mary
auses
ey@@
füllen
precau@@
ritt@@
jahrzehnte
governing
chts@@
zypern
ecken
檀@@
wur@@
駄@@
geschichten
musi@@
discharge
herrsch@@
infected
fläch@@
inven@@
onight
pharmaceutical
leid
ert@@
raphi@@
yugoslavia
स@@
bef@@
rendered
konnte
ל@@
投@@
glau@@
ussy
bezogene
entziehen
zutage
blioth@@
lohnt
productions
easi
া@@
ﬂ
profi@@
erreichen
esien
minute
86
侍
veget@@
annt
aufenthalts@@
schnelle
offen
stops
beträchtliche
wallström
hungary
lehr@@
geschi@@
ots
day@@
characteristic
angemessenen
stes
ogni@@
conflict
rio
kommende
graduate
animation
found
ould
ganze
besteuerung
geeigneten
paragraph
lifting
ef
ilom@@
spezielles
eye
befin@@
selves
entwickelten
ausbau
公@@
bev@@
prüfen
scal@@
acio
ii
ischer
arbeitgeber
南@@
exercises
weitaus
-spe@@
ftsman
aufgaben@@
business
registri@@
全@@
aktu@@
售@@
schnittstellen
hoffe
persön@@
hervorgehoben
luxuriöse
installing
beginn@@
bezieh
opping
bemerkung
temp@@
kreu@@
fluctu@@
bear@@
brought
welcomed
ehmen@@
operating
波@@
trigger
uganda
ึ@@
determin@@
arm@@
verlaufen
klein@@
hiv
stimmen
entscheidender
war@@
12@@
bedingten
laterooms
く
spirit@@
bau@@
florence
kehrt
touristen
liber@@
rüh@@
ärk@@
furnis@@
nich@@
liess@@
support@@
scher@@
fristen
insist
junction
筆@@
customized
ter
fu
11@@
hence
camping@@
mobilfunk@@
prü
veness
chemikalien
assi@@
wissenschaft
highway
gewi@@
ù
it@@
promotes
fa@@
candi@@
baute
deswegen
urance
急@@
approval
spr@@
学
municipality
wünscht
郝@@
difficulties
マ@@
encourage
gemeint
carriers
queen
ewi@@
corrid@@
esisch
lernen
allies
vulnerable
böge
tion-@@
government
陶@@
ሻ
commend
schrif@@
forderung
graus@@
tware
übermitteln
sky
ғ@@
б
rest@@
17.@@
作@@
marin@@
richtlinie
projektes
1933
karls@@
stret@@
organised
ros
benachbarten
92
löschen
stunden@@
vielzahl
no-@@
konkret
gige
einzugehen
umfeld
ards
fren@@
finanzielle
president
repres@@
andal
蔚
grass
水
kandidaten
94
spont@@
repe@@
financially
schwerwiegende
login
gether
mängel
verringert
宣@@
road
1949
agents
禅
instru
eingesch@@
net
plattform
armed
clu@@
」
süden
bemüh@@
bereitstellen
unprecedented
open@@
-p@@
hy@@
zwölf
lige
constitu@@
conservative
griechenlands
ub
bunal
leich@@
freude
克@@
abwechslungs@@
perfect
delivering
unmittelbare
herz@@
stig
berg
rule
brings
rational
es
alternative
deeper
rückkehr
glicher
authenti@@
endly
diox@@
gastronomie
ähn@@
dive
laufzeit
jährlich
umini@@
capabilities
验
sorgt
vergangenen
speziellen
venezuela
konsolidi@@
produk@@
blichen
oboda
picture
europäisches
surf
examine
effektiver
begun
diesbezüglich
installer
deluxe
ღ
relief
ausreichende
safegu@@
coin
nis
wolf@@
klausel
currencies
m.@@
.
alisation
88
verantwortlich
esc@@
groups
jür@@
zertifikat
werdet
verfügung
schätzungen
damen
1977
aa
决@@
child
颜@@
netzwerke
nord@@
k@@
glich@@
isti@@
besatz@@
daraus
储@@
ahl@@
einsetzen
ions
unbedingt
actu
ħ@@
teleph@@
anted
sendung
gesehen
imaging
altogether
gezeigt
sometimes
ten-@@
ura
rene@@
unci@@
す@@
will
eed
snow
prior@@
samstag
爪@@
cil
unfortunate
spräsi@@
ruft
verkün@@
eil
ratifizierung
tails
aliz@@
reichs
literally
significance
breites
exploit
label

energy-@@
accu@@
anti@@
sier@@
morgen
ү
aul@@
commun@@
household
läufigen
auszu@@
botschafter
sitzung
empf@@
außer
ocopying
bedroht
änderungen
bugs
camps
disappeared
tels
akteuren
ausrüstung
präsidentschaft
palast
ci
installations@@
generated
verloren
莹@@
afghanistan
dynamic
12-@@
ära
professor
deli@@
参
asten
roffene
ager
108
regulierungs@@
ig
stead
engine
philharmon@@
koh@@
kais@@
ield
enswert
etr@@
gi
macher
gemein@@
疆
wirksamen
auß@@
neh@@
frisch
proceed
era@@
move
angebotenen
ewg
datum
lux@@
fresh@@
grow
wick@@
three-@@
eful
örden
)
rahmen@@
ี
irgendeiner
vio
tai@@
one-@@
carl@@
ungs@@
listened
leader
知@@
olympic
aco
carbon
confir@@
thai
verified
ハ@@
stern@@
weich@@
sof@@
vorstellungen
etor@@
spit@@
our@@
convenient
policies
entities
ms@@
satz
lugg@@
溢@@
og
coup
satelliten@@
vorgesehenen
uz@@
tritts
weite
conducting
material
saal
antoni@@
fizieren
gt@@
θ@@
soft@@
pair
thy
blut
evenings
vorgehen
kriminalität
mie
rit@@
onom@@
dauern
slide
symbo@@
nachbarschaft
close
moz@@
turing
米
ɹ@@
besondere
provide
ŝ@@
definitiv
interessi
ạ@@
istic
叫@@
ografie
unch
überraschend
sammel@@
zivilisation
stil
pit
fahren
beschäftigt
scottish
warsaw
laboratory
laimed
senk@@
verw@@
cco
weitet
genehmigung
fußgän@@
es-@@
occur
勿@@
vertretern
anium
esch@@
universität
ktion
ecture
kunst@@
trin@@
bliche
abandoned
neighbor@@
stimulate
parliamentary
written
zugunsten
altar
region
solarium
recognises
explo@@
oul@@
princ@@
ção
möge
fährt
inviting
studying
jedes
gestellte
sonnenunter@@
aufhören
erw@@
ausgangs@@
craft
happy
ю
boy@@
auswertung
agement@@
tan@@
finances
establishments
sprechung
discrimination
währ@@
ökonomischen
andor@@
with@@
automatische
geschlechter
auszeichnung
aren
slow
characteristics
geordnet
technologi@@
humane
überwachung
say
peter@@
confronted
ender@@
assessing
schönsten
ergänzung
legislation
淹@@
bitt@@
left
tätigen
.00
angezogen
derartigen
attrak@@
v@@
muslim@@
ior
央@@
ausführungen
overwhel@@
ghted
elec@@
beeinflussen
exceed
rasse
serbien
verona
sweise
güns@@
gerichtet
lehnung
permits
sky@@
maybe
losen@@
räf@@
dismant@@
-fi
خ
malerweise
hielt
garc@@
ę@@
positionen
blut@@
ausgeübt
reiben
technologie@@
spati@@
länen
philosophy
ashed
jer@@
passwort
stain
bilder@@
heim
greatly
recycling
buy
parteien
feindlichkeit
enthusias@@
produce
egel
illegale
atlantic
licensing
arbeiter
viewed
iphone
her@@
lovely
hd
tner
し@@
deadline
entscheidende
xx@@
prior
müsse
negotiating
tool
migration
heiz@@
ausgezeichnete
rose
beneficial
א@@
real@@
vorherseh@@
famili
vollstän@@
fits
called
why
commission
dian
vizep@@
concert
操@@
erweiterung
echn@@
auge
pilgri@@
aton
zieh@@
saf@@
unanimously
ナ@@
zwis@@
menge
eve
1.000
emotion@@
乐@@
ẋ@@
produktion@@
auslegung
sting
schwarz
gramm@@
internet
functions
can@@
事
künftige
lication
nin@@
mei@@
ingent
fications
spreading
fossil
ammer@@
gefährlich
contamination
zog
atically
structured
gesellschaft
erklärung
üsse
advocate
portu@@
izza
mischen
refriger@@
vermutlich
87
hang
ausstellungs@@
tic@@
bestrebt
07.@@
mounted
mannschaft
cat
subsidiaries
chic@@
tim@@
provider
längeren
avier
cru@@
sprachige
š
beschaff@@
religiöse
yourself
bec@@
tun@@
vas
ä
regime
nächst
hand-@@
überschritten
enjoy
unterrichtet
volunte@@
andal@@
确@@
sincerely
exist
entirely
spiritu@@
zeichen@@
gründen
zh@@
mitteilungen
haz@@
新@@
ced
sheit
candidate
ts
sommer@@
hit
besitzen
keiner
verbraucher
ed@@
page
you@@
verhe@@
fers
talking
root
reibern
21
ɛ@@
ek@@
ব
bak@@
sofia
behilflich
报@@
bench@@
umgewandelt
quotas
致
residential
pes
toll
zügen
guy
dru
refl@@
prospect
konfer@@

stür@@
sheets
template
att
eite
nahe
activate
solutions
beschlossen
disku@@
exten@@
retri@@
ه
änger@@
downloading
bann@@
reformed
应@@
indications
impressed
erlauben
central
西@@
popularity
ceilings
noten
ũ@@
territories
chers
me
eservice
finger
tone
fiziert
kollek@@
ذ@@
eurojust
ationalen
aufenthalt
andau@@
exc@@
differing
1,000
bayern
fühle
barro@@
notwendig
user
komponente
consequ@@
partition
repeatedly
ßten
standen
method@@
durchgesetzt
leadership
doc@@
니@@
kan@@
feststellen
imperi@@
supposed
ohl
bip
athon
clinical
begeistern
2012
talent
liance
pride
paar
is
ງ@@
annäherung
logan
rlpool
signale
embargo
aci@@
mio
totalit@@
figer
後@@
gehir@@
condi
subsi@@
ส
wandeln
reihen
ergeben
gu
erfahren
acious
spekul@@
regularly
current
enorm
sensi@@
eurozone
verbre@@
arbeitenden
letters
übernahm
architects
intermediate
pé@@
vit@@
den@@
latin
oren
while
ancies
ordered
eigentlichen
dub
turns
hinweis
wahren
glei
berühmte
frei
bör@@
standpunkt
solchen
十@@
cookies
ießen
qual@@
#
almost
provence
digitale
breiter
förmi@@
18
optimization
itts
organisms
zusetzen
lined
seaside
listening
cherte
formel
grant
fashion
multination@@
prince
copy
utzt
birth
momentum
conven@@
brary
kau@@
grundsätzen
wä@@

echische
ierung
saw
jar@@
trotz
kehr
advance
erwachsenen
stak@@
pig@@
ausgleich
ç
depending
线@@
antwor@@
kongo
个@@
te-@@
navigation
genuss
feb@@
einzustellen
ernden
lität
≤
describe
situated
tus
ぢ@@
agem@@
dently
athed@@
var@@
maß
ica
staatsan@@
schau@@
installieren
dolom@@
orial
begren@@
warned
ollen
meisten
onnen
ll@@
外
spak@@
modernes
flor@@
age-@@
attraktive
coun@@
alarm
ск@@
petit
evo
élé@@
obstacle
otels
joy
sen
essively
salt
urteil
eeing
erium
ausgebil@@
受@@
th-@@
prix
reaktionen
figur
farming
moldau
suspension
posit
refused
großen
firma
strasbourg
concentrated
kirchen@@
demonstrating
ak
attach
ein
turm
entum
sende
ehlt
dr.
according
gift
antiken
robert
allah
mmen
vre
fauna
b5
kommenden
ines
closest
마@@
snack
post
便@@
pis@@
thread
unrecht
arious
requiring
körper@@
ungsch@@
zahlung
ว@@
46
detected
konto
lizenzen
achteili@@
entsch@@
⁄
vernichtung
sichts@@
behal@@
29@@
セ@@
ktion@@
mid
accidents
onale
ů
simult@@
compens@@
ashton
offen@@
stituted
fiz@@
ง
districts
covered
schritt@@
2008-@@
blick
agreed
ihren
¯
images
wines
04
jects
asch@@
contributed
verfahrens
isol@@
4@@
emet@@
silent
trink@@
britan@@
eichen
dutz@@
meg@@
emails
untersu@@
produkt@@
ban
usa
tains
easy
posi@@
condemn
floo@@
intended
한@@
befürchtungen
entsprechenden
vollsten
fehlern
sbru@@
debt
bran@@
stronom@@
ais
sprach
banken
inen

ays
tin@@
携@@
din@@
ference
empfehlung
片
meister@@
personal@@
bücher
fashionable
satis@@
legung
based
ämpft
ри@@
lacking
ggle
experience
dampfbad
і@@
strong@@
garten
san
soci
sträger
pré@@
than
ዋ
mittels
endent
tests
rim@@
byr@@
minister@@
detaillierten
timedia
balkans
aktive
einzigartiges
notic@@
adet
designing
danu@@
kauf
giovanni
stehend
rez@@
regional
ֹ@@
deteri@@
schaden@@
controls
hinweise
막@@
zuverlässi@@
wel
privati@@
qualifizierte
oners
ects
lossen@@
wertvollen
entierte
windigkeiten
adres@@
faktor
interior
langwieri@@
juli@@
state
derselben
leur
diplomatic
happ@@
esco
oll@@
constantly
oftware
abel@@
grenze
gsten
excav@@
elektr@@
carmen
pd@@
pursuing
able
conclusion
rooms
bestrebungen
gio
kunden
unit
zoll
dreh@@
cho
complementary
konsum@@
höhe
photo@@
anger@@
drug
3.@@
ан@@
düssel@@
zer
dankbar
ausländischen
atisti@@
patients
relation@@
ţ
güter
wäre
imagin@@
wherever
adhes@@
w.@@
zunächst
ม@@
schlage
bisher
wün@@
kompetenz@@
einsparungen
prospects
unternehmens
ie
beweisen
reject
professionelle
freue
ศ@@
pictures
rechenschaft
verni@@
grün@@
matters
iranischen
actively
stay
freier
porate
konz@@
anton
shanghai
hine
oni
rang
recur@@
copenhagen
kürzlich
rat
kompromiss@@
ich@@
closely
ketball
stadium
doctr@@
ktop
tif
officially
clim@@
-to-@@
and@@
judg@@
stem
unkt
）
twenty
eron
concepts
199@@
raised
funktionen
whom
widerspiegeln
alogues
眩@@
besides
itä@@
schwerpunkt
excell@@
urgently
migrants
verträ@@
apartment
zeug@@
98
vertritt
umfang
orange
ese
zeilen
behil@@
ium
somit
demonstrates
beher@@
deal@@
த@@
overl@@
skilled
stellen@@
chances
gegenseitige
wast@@
behavi@@
臓
chtet
rot@@
zü
adjusted
wise
attend
rl@@
third-@@
erfin@@
angesprochen
attitude
approximately
資
enhance
dependent
ran@@
neben
aus
plas@@
phr@@
if
welcher
ser@@
studio
equipped
ļ
examined
argument
polizei
nah@@
þ@@
74
é
cinema
隆@@
divided
habe
totally
open-@@
represents
ds
ω
first
enheit
73
gegen@@
transmitted
ъ
erarbeitung
gaining
®
dekor@@
1990er
pe-@@
gewerk@@
hob@@
vali@@
entfernen
gewiesen
trademarks
individuellen
wenngleich
advantages
phas@@
copies
tox@@
gebro@@
frischen
anfän@@
cycle
kh@@
gedächt@@
pacific
refur@@
paintings
ű@@
宝@@
damages
aware
eigentlich
zentralen
匿@@
religi@@
endungen
beizutragen
웅@@
schnee
perio@@
spor@@
verän@@
bestimmung
bition
protok@@
å@@
concentration
ord@@
wiener
links
県
purposes
pol@@
ien@@
existi@@
أ@@
시
क
meaning
aker
yer
微@@
kümmert
2.@@
ful@@
rechtzeitig
jedoch
lowing
須@@
arti@@
endem
wolfgang
ит
strom@@


55
t.
gering@@
speichern
ed
necessarily
种@@
schütz@@
predomin@@
reise
mass
aufträge
extending
男
ladung
such
everywhere
mazed@@
preis
fresh
bewirkt
vergrößern
pestizi@@
anzunehmen
curr@@
zwecke
zügi@@
kontakt
valent
teil@@
statt
westlich
unge
票@@
û
gebiet
even@@
wirksamer
sonntag
places
nia
justify
virtual
flexi@@
atorium
navig@@
democratisation
isoli@@
comfortable
worden
60@@
thick
bse
ww@@
ost@@
bish@@
austau@@
muster
extra@@
③
things
genuine
entru@@
ista
klimawandels
条@@
supran@@
gent
character
vergangenheit
keinen
atus
andrea
zufall
require
bilater@@
weis
250
suggestions
tackl@@
举@@
applik@@
scandinavi@@
continental
personalized
distinct
listen
uted
gnissen
nachts@@
europe
guil@@
stup@@
alb@@
vegetation
humanit@@
ozone
côte
fold
forthcoming
gens
stehen
einfl@@
republik
photography
satellite
regar@@
ells
dents
forwar@@
が@@
östlich
wehr
ologen
liquid
dene
gremium
laser@@
finanziellen
57
gm@@
delighted
versteck@@
bear
halle
derived
haft
only
seeing
几@@
56
entschieden
liefern
pets
ony
bräu@@
zugelassen
weg
shall
্
wild@@
dring@@
öser
ă
license
ümm@@
ophistic@@
fle@@
perspektive
internetanschluss
responsibility
dieses
ín
ġ
absch@@
birma
myan@@
absatz
umps
ve-@@
compet@@
ieb
arms
closer
weiten
registrierung
voir
davor
nun
christian
swedish
cyprus
symbolic
angsh@@
bicycle
amos
spanischen
hannover
klimatisi@@
heads
ommission@@
manual
erleb@@
accompany
aston@@
bekam
sicherer
z-@@
freundliche
ath
prochen
ratings
mich@@
year@@
auer
groß@@
裕@@
isolated
interesse
played
要
ض@@
t-@@
georgien
erweitert
mensch@@
吹@@
lebensdauer
ached
benachteili@@
staatlichen
statt@@
nationen
dem@@
viol@@
1,@@
disappointing
zoom
inevitable
downloads
stands@@
ּ@@
increas@@
werkzeuge
final
modified
erten
raten
bedauern
länge
friday
bres@@
elli@@
kein
gesenkt
dienstleistungs@@
wik@@
etter
seln
effektiv
couldn
irland
schulz
kommerziellen
fehlt
fernseher
wider
betrachtet
processes
veröffent@@
inanspruchnahme
舊@@
怒@@
seem@@
.000
qualitativ
denied
specifically
examples
adequate
zio
reality
bottom
義@@
inspiri@@
gerät
tip
tseite
rain
wür@@
lowest
pers
antworten
kost@@
b.
walls
prim@@
tenen
rant
quiry
monitor
kette
anspruchsvollen
ケ@@
mandriva
insurance
ibi@@
beeinflusst
differenzen
weitgehend
which
paragraphs
shell
abgehalten
endor@@
meinen
uk@@
溪@@
investitionen
assist
echo
pu@@
lle
musicians
rency
vorsitz
gewöh@@
agieren
offiziellen
bewundern
染@@
ë
benachbar@@
schutzes
betrug
fahrt@@
modular
loading
jugendherberge
car@@
meldung
accompanied
alitäten
ana
lé@@
nahmen
称
proven@@
ds9
lichem
texte
aktiven
malm@@
grab@@
南
ungeh@@
hor@@
six@@
ful
toys
farms
1980
signs
palm
cally
establish@@
booking
tan
ль@@
acres
orer
sten
kombiniert
ә@@
writes
kit
nachteile
alis
20
ен
übernehmen
müller
politische
valley
monaten
assemb@@
im
aktuelle
retar@@
送@@
sterne
orientierung
triple
ator@@
congress
samples
enzi
weit
ette
esque
田
man
ff
attack@@
nachten
jarzemb@@
werk
kühlschrank
pieces
älen
premis@@
民@@
star
transfer
dig
marble
conflic@@
agen@@
künfte
garten@@
announc@@
circuit
ware
esta
schauspieler
gängig
festgehalten
enjo@@
öse
chrom@@
dp
ittee
ppe
publikum
proteste
sätzlich
europe@@
einer
fest@@
praxis
tack@@
comb@@
hazardous
society
kräfte
tschechische
stur@@
umso
zeichnete
unknown
siem@@
verwandelt
angemessene
oga
erzielt
hö
top@@
betreffenden
wiederum
entspannung
tionelle
buying
preis-@@
risk@@
invo@@
aufschwung
gather@@
benutzen
350
betriebe
anstrengungen
aktualisieren
vorgänger
hardt
weitergeleitet
willigung
unterstützen
beobachter
ign
änge
actually
届@@
gebäudes
master
tien
cen@@
gesunden
zahlreiche
osc@@
tauschen
1988
zip
alu
nahrung
iere
ε@@
dienststellen
function
invitation
umliegenden
asi@@
farbe
teilgenommen
panoram@@
getö@@
carlos
ker
15
konjunk@@
kritischen
ousness
mel
chancen
lord
ibiza
haus
verbesser@@
mehrwertsteuer
each
listing
offiziell
stat
ment@@
situ@@
transparente
ali@@
geschäf@@
sau@@
extensive
enos
frontex
unterri@@
privatis@@
öten
mugabe
銀@@
mitzuteilen
sletter
anzugehen
villages
beauti@@
chungs@@
act
mat@@
affect
organisationen
畿@@
eu-@@
kompetenz
krati@@
mption
長
ket@@
brilli@@
amental
frag@@
extrac@@
intervention
lebensmitteln
speak
appointed
freien
transparenter
protest@@
einschließlich
administrative
rent
been
duced
successor
brutal
kraft
旧@@
血
ld@@
cancer
eröffnet
得@@
deaths
schönes
斗@@
finding
viruses
giant
treibung
friends
technological
aufzu@@
cultures
hatt@@
non
ticket@@
essor
zeugt
stein
summer
failures
enforcement
enhof
order
personen
fulfil@@
beautifully
motivi
countless
agency
herrn
spare
thes@@
genden
は
ĵ@@
schlacht
leck@@
plan
unions@@
容@@
heres
govern@@
dam
hellen
sentation
feind
175
effiziente
besor@@
settled
nahr@@
änger
happiness
bearbeitung
ble
entnehmen
녀
lange
optim@@
verank@@
ersetzt
productive
entrance
vian
dutch
sun
san@@
satisfactory
瞎@@
航@@
torre
greif@@
ziger
personally
ghts
megapi@@
sionally
sammeln
fitness
tv-@@
ises
volumen
printing
energie
schlecht
ceremony
compared
businesses
amed
logistik
lenken
publishing
chap@@
verhältnis
boost
comprehensible
sees
traveling
model@@
arbeitung
alition
1968
ear@@
einstellung
ausgestattete
ž@@
beautiful
object
eight
ン@@

eng@@
basin
fabrik
gehend
findung
help
jon@@
struck
lon@@
付
müßte
geschützt
‡
國
aar
hindernis
hektar

tierenden
sax@@
directed
einfaches
night@@
stellungen
gesetzes@@
configur@@
re
fish@@
miteinander
goth@@
el-@@
schrank
베@@
vermeiden
signals
convenience
logos
forever
focused
connecting
wärtige
identify
flugzeug@@
宮
chal@@
zu@@
积@@
konzerte
russische
accurately
fertili@@
ball@@
hängen
grade
1930@@
analysieren
humanitäre
halb@@
jä@@
*
erhältlich
minutes
omo
scheitern
spoken
ahlen
nazi
zustellen
finishing
ser-@@
pools
3d
ght
complaints
vertiefung
otherwise
proph@@
ministerpräsidenten
op@@
ו
telekommunik@@
quellen
esses
ize
⇢
sho@@
press
smes
weltkrieg
offensicht@@
soft
calls
adopted
boli@@
einziges
iste
ott
besich@@
letztendlich
praktische
einigung
automatic
earthqu@@
反@@
title
uncertainty
文
194@@
int
wichtiger
wetter
chemical
untersuchungen
risk
gan
ungar@@
controversi@@
ministers
tried
lik
crises
anerkannten
obile
ror
garda
maßgeschnei@@
dezember
sinnvoll
inevitably
rei
not
springen
ĝ@@
worlds
う@@
语
spieg@@
û@@
ggling
ahnen
met
regul@@
aid
konferenz-
anstatt
mus
bürger@@
disease
turkish
middle
schungs@@
weder
competent
demnach
d.
anmerkung
procedure
zim@@
korruption
platten
acknowledge
cheap
jahr@@
nom@@
aufgerufen
۴
lang@@
wettbewerbs
reducing
compliance
spar@@
äuser
equipment
thou@@
incredibly
zipl@@
保@@
š@@
slovenia
ent-@@
lu@@
elte
titel
disch
full-@@
genehmigt
carrying
drafting
sophisticated
合@@
ambi@@
grid
wart@@
ly-@@
overwhelming
enland
rede@@
್
weekly
eting
interface
regulatory
messages
疫@@
aying
beschl@@
keineswegs
buffer
ბ@@
leichten
streng
untersagt
bedürfnissen
development
gleichen
10
ニ@@
deterioration
nachrichten@@
ermitteln
grund@@
tiges
岩@@
gten
jeglichen
aug@@
click
inc@@
internationalen
ury
persu@@
beauftragte
circulation
erlangt
nightlife
plenty
ח@@
steigerung
derjenigen
rank
aling
moh
memorable
element
清@@
car
pleas@@
flugzeug
hungarian
jährlichen
abkommens
harmful
zauber@@
biologischen
igen
instances
tro
leone
ore@@
autover@@
ド@@
asion
了
radio
one
alige
diagr@@
3.0
erinn@@
positioned
decor
import
represent@@
stability
ares
bisschen
で@@
ähnliches
galileo
3,5
sporting
-free
radic@@
inge
ベ@@
ignorieren
posing
william
verteidigt
gst
zin
fortsch@@
heitliche
news
fires
ersatz@@
yours
rand
直@@
locals
prag
之@@
embar@@
spä@@
delicious
issen
suddenly
gul@@
chor@@
boxes
stärken
poin@@
text
schedule
ʊ@@
winter@@
affili@@
tri
avig@@
lobby@@
280
erwerb
regardless
fon@@
auftrag@@
operativen
eindeutige
letzter
i.@@
sum
erland
large-@@
mailing
esn
fined
ecker
vermögen@@
ვ@@
martini
lic
enthalt
ohl@@
ech-@@
beurteilung
berührt
marc
-sh@@
sisko
orian
ug@@
zige
volks@@
automation
aissance
elled
stanz
tätigkeiten
donau
download@@
colum@@
angeführt
verletzen
senal
getre@@
eri
pla@@
mehrheits@@
view
&
bringt
bildschirm
alogue
anth@@
frühstücksraum
headed
bears
usb
bevölkerung
register
geeign@@
modernisation
wöch@@
erfolg
verteilung
liner
cape
seating
weshalb
to-@@
af@@
chief
überlegen
give
carib@@
völ@@
urlaub@@
capability
zo
ো@@
armen@@
abwicklung
臂@@
abgel@@
unterbrochen
dem
apest
manufactur@@
pt
completing
approx
const@@
ading
tik
freilassung
下
sie
erieren
ethnic
lim@@
elec
christ
exploited
stoßen
tz@@
interpretation
materialien
courses
geliefert
airconditioning
library
kannst
begegnen
le
verknü@@
gast@@
berger
extern@@
ت
practic@@
inischen
vine
jub@@
icel@@
sacrific@@
logis@@
㎡
mir
sour@@
issued
4-@@
klarer
bereichen
berücksichtigen
vall@@
1.4
bester
i@@
ruf
oden
こ@@
evident
uten
۸
corbett
neigh@@
thirty
regu@@
stoff@@
rats@@
speculation
bemerkungen
gehminuten
eled
schreibt
needs
assisted
preparatory
lischen
verzögerungen
strengthened
beat
xel
weaken
continually
euros
wichtig@@
bezug
what
entiert
reminded
ränkt
ectiv@@
admitted
ron@@
edinburgh
existierenden
siemens
basieren
appoint
ariat
wrote
mainstre@@
österreich
interpret
separately
z@@
record
bell@@
chocol@@
transp@@
effizienten
身
winner
gesund@@
magaz@@
bisherigen
initiative
inno@@
erkrankungen
exhibition
south
europäischer
no@@
án@@
keeping
lebten
ف@@
installations
ұ@@
enten@@
entsprechen
rev
daily
explicit
spenden
staats-
夷@@
mounting
bonus@@
iti
hings
augen
サ@@
dänemark
sere
thumb
surface
would
交@@
ihrerseits
techniques
tools
aten@@
mag
tt
惧@@
ciples
techni@@
fy
jahres
bu@@
hätte
fabulous
lück@@
pressures
cide
gefährliche
aqu
gest
also
esten
bezüglich
ären
regrettable
merit
128
start
reconciliation
betreffende
th@@
和
.org
innovations
made
oberen
入@@
vorhanden
inform
igc
feder@@
博@@
cock
fin
gische
hoff@@
lithu@@
と@@
formed
65
immern
scre@@
löst
ann
predictable
unnel
jor@@
verschiedenen
adju@@
zlich
gb@@
reve@@
atlan@@
ّ@@
blumen
weichen
－
stav@@
ς
floor
attempts
ads
straft@@
acknowled@@
refres@@
kü@@
5-@@
vielfäl@@
burn
sustain
vide@@
eria
61
amp@@
richtig
す
stage
brasili@@
ceful
--------@@
aufrecht@@
tng
eau
jetzt
geeignete
therapy
vergleichbar
ench@@
deliberately
specific
al@@
grad
漢@@
on
bigen
zufolge
igungen
bedar@@
zi
hoh
automati@@
tarif@@
system
shares
azi
price
oting
projekt
depri@@
singer
verschärft
én@@
nütz@@
dle
childhood
esso
mitgliedstaat
klick
onym
midi
ύ@@
ل@@
daß
beds
bestand@@
ima@@
wissenschaften
nitten
aff
steine
ways
warming
but@@
henry
ruhig
aufw@@
restra@@
birmingham
standorten
neben@@
migrant
high
recession
schweden
ố
beinhaltet
gehende
segment
226@@
stattfinden
pier@@
winter
verheu@@
sens@@
stell@@
bav@@
swim
moul@@
inhalte
explorer
胞
器
audiovisu@@
ब
implementi@@
gl
konkur@@
depends
investigations
schweizer
atter@@
zar@@
evision
vorhandene
five-@@
announcement
brochure
miß@@
especially
unken
kollege
iser
übereinkommen
moldo@@
seriously
อ
isen
uni
vollkommen
s.
grat@@
tering
statut
oo@@
ς@@
welches
capture
unde
fore
gestanden
mentioning
lufthansa
escape
arte
普@@
sunny
filling
alistischen
vessels
immobilien@@
門@@
ask@@
durchführungs@@
gebe
sports
verpfli@@
relates
fa
ues
《
jahres@@
tau@@
ud
agri
isl@@
mingham
bestehenden
warum
mood
gery
slightly
difficul@@
星@@
livestock
eholder
joh@@
kamin
kass@@
apers
mengen
bonus
mix
acro@@
溜@@
esh
்
histor@@
unemployed
stag@@
fession@@
continuing
moreover
danger@@
maxim@@
wo
wa
ins
holders
who
baum
ust
aison
ruppe
gre@@
gründungs@@
darauf
einladen
fördern
ś
training@@
gress
kurzfristig
short@@
-und
rhyth@@
surfaces
verbesserung
belastung
civilians
sacrifice
ott@@
lex@@
halts@@
junior
æ@@
kombination
tics
wikitra@@
was
何@@
alone
workforce
failed
philosophi@@
住@@
erhöh@@
ähi
问
anwesend
sudden
26
someone
angebote
environments
ungleichheiten
noti@@
istischen
right
gri@@
唐@@
abbas
üs@@
helps
anf@@
unnö@@
verzi@@
lion
rischen
varieties
stering
strongly
zehnten
,
desire
basically
erwer@@
gestalt
cocktail
engruppen
ox@@
wood@@
evaluation
romp@@
aufsicht
gerichteten
nördlich
schieden
räum@@
13th
datens@@
toral
supp@@
chem@@
fically
harm
ila
em@@
old
σ@@
indi
onsor@@
cau@@
치
viron@@
婁
auft
द
ranking
fit
save
participate
gefährdet
technique
た
strich
vereinig@@
lich
firmen
ghty
珠@@
church
dream
group@@
menten
albania
uminium
cards
exciting
origin
summit
gehabt
nächte
vorgesehen
ood
apping
ass
sicht@@
拉@@
gewesen
generaldire@@
permitted
zwar
yard
bases
ў
decken
knew
cancún
螨@@
bler
kla@@
approve
exclusion
erweiterungen
zahlungs@@
aust
kehren
達@@
fleisch
specialized
ail@@
ordnungs@@
expensive
akten
campaigns
übri@@
eric
4
industrie
lass@@
addressed
mietung
ausgeht
erfolgreich
藤
gs
attraction
einbezogen
ka
gegenwärtigen
scenario
met@@
orino
intensiven
diagno@@
ctu@@
sibilities
highly
sible
idance
熟@@
skype
ქ@@
antrieb@@
124@@
ba@@
golf
赤@@
erial
damals
untereinander
utor
nationalism
versuchen
dedicated
convey
ansicht
verarbeitung
wahrung
sicherzustellen
zenten
anischer
vorschrift
militar@@
terran@@
kammer@@
gungs@@
izz@@
luxem@@
dass
fried@@
anmerkungen
keine
ala@@
akte@@
übergreifende
ssi
arrange
pregn@@
gkeits@@
ven@@
läufig
änderungs@@
fruit@@
federation
nesses
gewerkschaften
servi@@
unmittelbaren
zimmer
odation
überraschung
einzusetzen
sm
lose
äle
licht@@
iron
tigkeits@@
bulg@@
24@@
confer@@
sharon
embers
machin@@
fahrzeuge
flusses
ankommen
仁
mul@@
längst
einiges
demokratischen
formula
mars
elektriz@@
standards
privileged
dacht
न@@
tiere
vernachlässi@@
ел
reserves
eintritt@@
stabile
fordert
küh@@
stadtteil
茨@@
generation
zunehmenden
geholt
normal
others
gelöst
merely
ethical
scann@@
ro@@
shot
ც@@
verfügbaren
崩@@
praktischen
oos
after@@
enst@@
ele
vergleich
illa
medicines
architecture
bas
recognize
fehl@@
begrüßen
virtuelle
ländliche
macht@@
agement-@@
ond@@
journ@@
radi@@
enough
arbeitungs@@
angelegenheiten
佑
trag@@
attempt
tionary
zei
series
erzeu@@
finance
vor
posted
mutter@@
search
experiment
parkplätze
ely
ฟ@@
contem@@
translation
oma
ǎ
abent@@
thurs@@
ction
awareness
rechnungs@@
work
reflek@@
及@@
cken
打@@
spreche
improvements
ย@@
missible
perfekten
predec@@
round
士@@
架@@
präsident
security
react
bag@@
beenden
useful
behoben
display
halb
proportion
fes
mitch@@
buchs
dro@@
ished
forge
laden
igten
wers
sin
brü
prevent
therto
ungs
rund
übergang
tongue
mild
腹@@
appreciate
ả@@
thetic
hybri@@
stadtzentrum
deadlines
ุ
spa
mische
cir@@
flav@@
universal
collection
users
ritter
komplex@@
köni@@
directors
kupf@@
allo
list
einheitlichen
invested
autob@@
arib@@
fortschritt@@
sets
cip@@
tariffs
objects
comit@@
strictly
cost
tac@@
audio-@@
kontro@@
largest
programms
sonstige
hn@@
complet@@
bedeutend
kamera
länger
nachteil
aran
tigungs@@
schwarz@@
letzten
amb@@
archaeological
door
estu@@
mung
tiken
galax@@
ökologische
konzern@@
љ
poorest
diving
donn@@
übt
技@@
政@@
property
ädigung
か@@
initiate
handlung
chtsdest@@
imm@@
gives
7.@@
spielte
enabled
begrenzten
ansichten
uft
gewinn@@
verschwinden
leaving
08.@@
refugees
benötigen
ommen
iled
einheimischen
closing
stamm@@
oriums
gyp@@
thri@@
weiterzu@@
drau@@
naples
matter
read
hein@@
zweiter
measurements
grundsätzlich
kommissions@@
facili
stärkung
ab@@
efficiency
john@@
beta
焼@@
ellec@@
anol
hp
max@@
objektiv
17
flu
raft
timor
reservieren
fischer@@
ionship
elsewhere
к@@
highlight
irgendwie
elektronik
fores@@
wird
tivals
bel@@
niederlande
ậ@@
second
monthly
ump@@
resta@@
without
ax@@
würde
enzo
ô
yn@@
auftreten
ghly
东
klusi@@
permission
camp@@
’
百@@
technologies
ji@@
formu@@
sue
began
verschaffen
teils
н@@
participation
vorausgesetzt
deep
ка@@
ren
10.@@
buted
ihres
commonly
aktions@@
wichtig
y@@
3
bewiesen
bi@@
hood
ע
neu
walli@@
1961
ι
theatre
utter
letes
dete
hohem
wies@@
benötigten
ist@@
commons
hoping
instruction
wartet
fif@@
assis
nevada
verlän@@
myanmar
uniqu@@
1000
mc@@
operation
1200
aal
wunder
aspirations
holi@@
gestärkt
ausbildung
ersuchen
unterschiedlichsten
gleich@@
山@@
titles
runs
50-@@
requested
ৰ
[...]
